<unk>	0
<s>	0
</s>	0
<pad>	0
▁a	-0
in	-1
on	-2
▁t	-3
▁w	-4
ed	-5
er	-6
at	-7
en	-8
__	-9
re	-10
▁s	-11
he	-12
▁p	-13
it	-14
as	-15
is	-16
or	-17
▁c	-18
▁d	-19
▁an	-20
▁f	-21
al	-22
ent	-23
▁h	-24
ati	-25
▁and	-26
ar	-27
▁o	-28
le	-29
▁was	-30
ic	-31
▁to	-32
___	-33
▁___	-34
ing	-35
ro	-36
▁b	-37
▁m	-38
▁in	-39
▁re	-40
ith	-41
▁P	-42
▁with	-43
▁n	-44
an	-45
▁the	-46
▁of	-47
ou	-48
lo	-49
om	-50
ion	-51
ly	-52
▁on	-53
==	-54
es	-55
▁H	-56
▁C	-57
atient	-58
ve	-59
▁T	-60
os	-61
ct	-62
▁for	-63
▁S	-64
▁e	-65
id	-66
ul	-67
ation	-68
▁st	-69
il	-70
ol	-71
▁con	-72
▁th	-73
▁A	-74
ain	-75
ut	-76
ch	-77
ur	-78
ot	-79
et	-80
▁I	-81
▁D	-82
us	-83
ab	-84
▁#	-85
▁patient	-86
▁dis	-87
im	-88
el	-89
ad	-90
res	-91
▁1	-92
ig	-93
▁he	-94
▁u	-95
▁g	-96
▁l	-97
ge	-98
st	-99
▁M	-100
====	-101
op	-102
ac	-103
ver	-104
▁as	-105
ated	-106
▁(	-107
▁ad	-108
od	-109
▁-	-110
ter	-111
ted	-112
▁O	-113
ri	-114
ere	-115
char	-116
▁R	-117
am	-118
low	-119
ay	-120
able	-121
▁wh	-122
▁be	-123
em	-124
ia	-125
▁cont	-126
▁ne	-127
ine	-128
▁N	-129
▁at	-130
▁The	-131
▁his	-132
th	-133
▁<	-134
iv	-135
ce	-136
sion	-137
▁pain	-138
▁dischar	-139
ow	-140
▁her	-141
inu	-142
▁or	-143
▁v	-144
▁r	-145
ome	-146
▁is	-147
▁B	-148
▁E	-149
ir	-150
▁not	-151
▁2	-152
▁She	-153
▁He	-154
ate	-155
▁L	-156
▁PO	-157
um	-158
nd	-159
se	-160
▁adm	-161
ke	-162
ap	-163
ill	-164
our	-165
▁were	-166
▁di	-167
ure	-168
rom	-169
▁mg	-170
end	-171
▁le	-172
igh	-173
ollow	-174
▁home	-175
ON	-176
▁se	-177
inued	-178
▁ex	-179
per	-180
ell	-181
ast	-182
act	-183
▁discharge	-184
ran	-185
IS	-186
ative	-187
▁al	-188
▁pro	-189
▁follow	-190
ment	-191
▁no	-192
▁pres	-193
▁ab	-194
ive	-195
TI	-196
edic	-197
ib	-198
ight	-199
▁day	-200
▁de	-201
▁sh	-202
one	-203
▁Patient	-204
▁she	-205
ction	-206
▁F	-207
▁rec	-208
pt	-209
▁y	-210
ld	-211
▁had	-212
ess	-213
ip	-214
hy	-215
ult	-216
ase	-217
▁G	-218
oc	-219
ial	-220
iven	-221
▁by	-222
qu	-223
========	-224
log	-225
ary	-226
out	-227
ital	-228
fe	-229
▁we	-230
ged	-231
▁un	-232
up	-233
rans	-234
ont	-235
▁from	-236
▁3	-237
IC	-238
ical	-239
▁___.	-240
ost	-241
▁up	-242
ft	-243
▁medic	-244
gh	-245
▁.	-246
iz	-247
▁out	-248
▁com	-249
ory	-250
▁ha	-251
▁ch	-252
ission	-253
ard	-254
▁that	-255
ved	-256
00	-257
ler	-258
ist	-259
▁ev	-260
▁this	-261
lu	-262
orm	-263
▁W	-264
ES	-265
▁pl	-266
▁inc	-267
ich	-268
pro	-269
if	-270
ort	-271
ily	-272
▁which	-273
▁per	-274
▁admission	-275
ition	-276
▁U	-277
CH	-278
▁rem	-279
▁given	-280
AL	-281
▁4	-282
▁trans	-283
▁have	-284
▁well	-285
▁stable	-286
▁res	-287
▁5	-288
ub	-289
▁On	-290
▁hy	-291
ous	-292
ations	-293
▁im	-294
pe	-295
pl	-296
arted	-297
TION	-298
osp	-299
fter	-300
anc	-301
▁cons	-302
▁continued	-303
▁li	-304
ther	-305
▁but	-306
ity	-307
ak	-308
ign	-309
▁present	-310
mg	-311
▁reg	-312
RG	-313
▁sy	-314
reat	-315
rol	-316
ound	-317
yc	-318
▁ap	-319
▁hosp	-320
ra	-321
ep	-322
itis	-323
urg	-324
olog	-325
ained	-326
patient	-327
-1	-328
▁has	-329
▁will	-330
ating	-331
use	-332
art	-333
fer	-334
▁hospital	-335
ular	-336
▁IV	-337
ever	-338
all	-339
▁ac	-340
▁tim	-341
aily	-342
ant	-343
kely	-344
▁toler	-345
ag	-346
▁int	-347
▁after	-348
ould	-349
ablet	-350
age	-351
▁show	-352
su	-353
▁che	-354
▁without	-355
ne	-356
ID	-357
▁sign	-358
inal	-359
ru	-360
osis	-361
OR	-362
▁control	-363
ron	-364
▁mon	-365
▁ant	-366
▁___,	-367
un	-368
▁No	-369
▁started	-370
ole	-371
ery	-372
▁Dis	-373
red	-374
▁Re	-375
▁0	-376
est	-377
ice	-378
mpt	-379
▁daily	-380
▁am	-381
itted	-382
▁ca	-383
mptom	-384
▁CT	-385
SI	-386
ute	-387
ek	-388
ose	-389
cer	-390
▁outpatient	-391
ph	-392
uring	-393
▁impro	-394
▁discharged	-395
ies	-396
ormal	-397
▁hem	-398
▁rep	-399
so	-400
▁Tablet	-401
ress	-402
ile	-403
▁blo	-404
▁IN	-405
ED	-406
lease	-407
▁admitted	-408
ence	-409
▁*	-410
erv	-411
RGE	-412
ness	-413
▁wor	-414
▁Th	-415
▁hist	-416
reas	-417
▁left	-418
ontinued	-419
rior	-420
▁time	-421
pir	-422
▁diet	-423
ology	-424
uro	-425
▁history	-426
oid	-427
▁week	-428
▁pre	-429
).	-430
EN	-431
▁neg	-432
▁likely	-433
▁In	-434
▁surg	-435
▁disc	-436
ding	-437
ide	-438
▁need	-439
nder	-440
▁[	-441
▁medications	-442
IL	-443
▁who	-444
ough	-445
otic	-446
▁1.	-447
ue	-448
▁pos	-449
rou	-450
dom	-451
▁under	-452
▁PR	-453
▁prior	-454
ox	-455
▁Q	-456
▁plac	-457
CHA	-458
ISCHA	-459
ourse	-460
ISCHARGE	-461
ardi	-462
ten	-463
▁ar	-464
AM	-465
itor	-466
▁post	-467
▁Her	-468
ST	-469
▁also	-470
▁negative	-471
▁right	-472
ail	-473
ently	-474
▁course	-475
CP	-476
DISCHARGE	-477
▁symptom	-478
▁10	-479
▁showed	-480
▁blood	-481
ures	-482
▁6	-483
emia	-484
atus	-485
ced	-486
ax	-487
▁lo	-488
erap	-489
▁Pt	-490
ILY	-491
▁dr	-492
ck	-493
led	-494
▁init	-495
ake	-496
stru	-497
lear	-498
omy	-499
▁su	-500
ff	-501
BC	-502
IN	-503
▁did	-504
ple	-505
▁V	-506
▁St	-507
ting	-508
▁during	-509
ious	-510
bul	-511
atic	-512
ys	-513
▁low	-514
▁ele	-515
▁8	-516
ER	-517
ronic	-518
▁monitor	-519
▁met	-520
▁rece	-521
alu	-522
dition	-523
cern	-524
omm	-525
▁remained	-526
▁flu	-527
▁any	-528
SS	-529
▁normal	-530
reased	-531
▁tak	-532
IST	-533
▁dec	-534
inue	-535
ORY	-536
TIONS	-537
po	-538
rem	-539
▁inter	-540
urther	-541
LO	-542
▁infe	-543
▁days	-544
ISTORY	-545
▁cl	-546
ore	-547
▁His	-548
▁symptoms	-549
ization	-550
▁concern	-551
▁transfer	-552
own	-553
▁due	-554
▁ro	-555
ially	-556
int	-557
▁BID	-558
▁over	-559
rough	-560
OD	-561
▁man	-562
▁2.	-563
▁your	-564
oper	-565
▁Dr	-566
▁receiv	-567
ended	-568
▁further	-569
▁evalu	-570
▁oper	-571
ass	-572
▁acute	-573
ix	-574
▁so	-575
▁7	-576
▁abdom	-577
ack	-578
▁signs	-579
enc	-580
operative	-581
▁set	-582
▁ext	-583
▁controlled	-584
rop	-585
▁care	-586
▁ag	-587
-3	-588
ium	-589
erapy	-590
▁DA	-591
eral	-592
▁ob	-593
▁dose	-594
▁chan	-595
amin	-596
EDIC	-597
▁sc	-598
▁tolerated	-599
▁fluid	-600
▁surgery	-601
▁received	-602
▁recomm	-603
▁chest	-604
▁DAILY	-605
ear	-606
▁POD	-607
▁oral	-608
▁ISS	-609
▁sp	-610
▁presented	-611
▁cardi	-612
▁go	-613
lol	-614
▁found	-615
▁been	-616
▁bas	-617
▁requ	-618
ric	-619
ions	-620
▁serv	-621
sib	-622
AD	-623
ond	-624
ement	-625
iotic	-626
▁ISSU	-627
ove	-628
ance	-629
▁ISSUES	-630
▁rest	-631
sy	-632
onary	-633
.5	-634
ibiotic	-635
▁compl	-636
▁At	-637
▁improved	-638
▁ep	-639
ract	-640
▁setting	-641
rib	-642
ause	-643
▁sub	-644
enal	-645
ease	-646
▁infection	-647
▁k	-648
▁elev	-649
very	-650
cop	-651
▁x	-652
▁po	-653
▁Continued	-654
urr	-655
▁regular	-656
atin	-657
▁col	-658
▁transferred	-659
ens	-660
leed	-661
ulm	-662
▁do	-663
oth	-664
▁it	-665
▁while	-666
▁clin	-667
▁ambul	-668
and	-669
▁neuro	-670
▁evid	-671
▁antibiotic	-672
▁pt	-673
▁hyper	-674
▁work	-675
▁abdominal	-676
struction	-677
▁proced	-678
▁Y	-679
cess	-680
▁HISTORY	-681
▁An	-682
te	-683
▁ur	-684
ically	-685
▁evidence	-686
================	-687
ss	-688
▁chronic	-689
▁Hy	-690
▁clo	-691
ud	-692
▁should	-693
--	-694
ched	-695
▁ass	-696
▁possib	-697
▁through	-698
der	-699
▁PCP	-700
ry	-701
ills	-702
ild	-703
TN	-704
▁hour	-705
▁9	-706
▁100	-707
▁Please	-708
▁disease	-709
form	-710
CU	-711
ale	-712
eline	-713
went	-714
ider	-715
▁bleed	-716
ath	-717
▁weeks	-718
▁fever	-719
0.	-720
gn	-721
▁te	-722
▁procedure	-723
▁Sig	-724
atory	-725
-2	-726
▁remo	-727
oph	-728
▁regim	-729
▁ret	-730
arin	-731
▁K	-732
▁det	-733
yl	-734
▁initially	-735
▁fe	-736
▁underwent	-737
ped	-738
▁flo	-739
▁co	-740
▁hyp	-741
ite	-742
▁if	-743
▁resol	-744
▁CO	-745
▁may	-746
▁ED	-747
▁therapy	-748
▁regimen	-749
hys	-750
▁then	-751
ach	-752
ific	-753
▁year	-754
▁sw	-755
▁cult	-756
▁floor	-757
▁Al	-758
▁Le	-759
▁are	-760
▁medication	-761
▁sever	-762
PM	-763
▁Ne	-764
SITION	-765
▁elevated	-766
▁hours	-767
ENT	-768
fus	-769
vel	-770
yt	-771
ision	-772
ening	-773
▁Mr	-774
ges	-775
ulted	-776
▁other	-777
▁held	-778
yn	-779
▁noted	-780
▁plan	-781
▁recent	-782
▁comple	-783
▁cou	-784
▁hospitalization	-785
▁adv	-786
ulmonary	-787
▁continue	-788
ode	-789
▁3.	-790
ull	-791
ending	-792
▁BLO	-793
reated	-794
cond	-795
▁BLOOD	-796
ons	-797
owever	-798
▁hep	-799
RI	-800
▁baseline	-801
og	-802
owel	-803
ctive	-804
▁pr	-805
ression	-806
az	-807
▁treat	-808
LE	-809
▁placed	-810
RA	-811
istent	-812
▁antibiotics	-813
cted	-814
▁Disp	-815
▁consulted	-816
▁exam	-817
▁you	-818
▁em	-819
▁Dischar	-820
ving	-821
▁increased	-822
ility	-823
AT	-824
▁MEDIC	-825
▁12	-826
▁drain	-827
▁CH	-828
▁This	-829
▁diff	-830
▁20	-831
▁HTN	-832
OC	-833
hem	-834
ef	-835
▁bowel	-836
▁service	-837
OS	-838
1.	-839
UC	-840
▁non	-841
bri	-842
▁status	-843
ade	-844
point	-845
ram	-846
▁rel	-847
oma	-848
▁GI	-849
▁tolerating	-850
▁report	-851
tension	-852
cc	-853
brile	-854
▁40	-855
▁recommended	-856
▁]	-857
ausea	-858
vent	-859
▁HC	-860
ately	-861
▁(1	-862
▁there	-863
opro	-864
▁ind	-865
▁second	-866
ency	-867
▁treated	-868
▁monitored	-869
4.	-870
RE	-871
▁throughout	-872
▁mild	-873
iagn	-874
ctomy	-875
ental	-876
▁void	-877
▁operative	-878
▁sup	-879
ycin	-880
▁possible	-881
▁taken	-882
▁seen	-883
VE	-884
urn	-885
),	-886
its	-887
▁clear	-888
▁though	-889
▁discus	-890
▁head	-891
xt	-892
▁inclu	-893
▁epis	-894
ral	-895
▁bil	-896
olic	-897
ificant	-898
ICAL	-899
▁Ms	-900
▁appro	-901
peat	-902
oprolol	-903
▁mult	-904
▁condition	-905
av	-906
▁OR	-907
fills	-908
▁stay	-909
▁sm	-910
PO	-911
icated	-912
▁sin	-913
▁treatment	-914
ual	-915
ateral	-916
▁fl	-917
▁significant	-918
▁fract	-919
▁back	-920
hyl	-921
▁removed	-922
neum	-923
▁Refills	-924
tained	-925
febrile	-926
oscop	-927
▁hemat	-928
▁new	-929
rial	-930
PA	-931
structions	-932
▁needed	-933
▁when	-934
▁unt	-935
STR	-936
ors	-937
elt	-938
▁fail	-939
▁above	-940
sues	-941
▁tw	-942
arc	-943
▁Ac	-944
STRUC	-945
ided	-946
▁ins	-947
asc	-948
▁off	-949
athy	-950
ized	-951
▁INSTRUC	-952
▁ris	-953
▁INSTRUCTIONS	-954
▁nausea	-955
tal	-956
▁until	-957
vast	-958
itive	-959
▁ox	-960
ema	-961
▁all	-962
▁manage	-963
▁q	-964
▁afebrile	-965
▁bleeding	-966
ATIONS	-967
nown	-968
ril	-969
▁see	-970
▁One	-971
▁Discharge	-972
▁extrem	-973
XR	-974
▁WBC	-975
vastatin	-976
▁4.	-977
MA	-978
▁INR	-979
pirin	-980
▁ed	-981
▁vital	-982
SA	-983
unction	-984
ong	-985
▁lower	-986
▁weight	-987
▁dys	-988
iting	-989
▁room	-990
▁transition	-991
▁(1)	-992
RAN	-993
▁pulmonary	-994
▁br	-995
▁We	-996
▁some	-997
▁felt	-998
PH	-999
▁lab	-1000
iology	-1001
hab	-1002
rh	-1003
hysical	-1004
▁return	-1005
50	-1006
co	-1007
EG	-1008
adin	-1009
▁renal	-1010
▁PRN	-1011
▁[]	-1012
ctiv	-1013
▁tub	-1014
▁Pl	-1015
ane	-1016
▁clinic	-1017
▁You	-1018
SH	-1019
▁changes	-1020
▁secondary	-1021
▁Status	-1022
▁improve	-1023
▁management	-1024
iple	-1025
▁resolved	-1026
▁Given	-1027
▁close	-1028
▁detail	-1029
VT	-1030
▁wound	-1031
▁consider	-1032
uled	-1033
rit	-1034
▁Ab	-1035
ocyt	-1036
med	-1037
iet	-1038
▁sug	-1039
nt	-1040
▁discontinued	-1041
ior	-1042
vious	-1043
▁consistent	-1044
▁pneum	-1045
pri	-1046
ie	-1047
▁TRAN	-1048
sure	-1049
▁check	-1050
eds	-1051
LT	-1052
inop	-1053
▁HD	-1054
odone	-1055
▁take	-1056
▁good	-1057
2.	-1058
▁old	-1059
▁MCH	-1060
axis	-1061
▁concerning	-1062
pear	-1063
val	-1064
▁wors	-1065
▁following	-1066
▁urine	-1067
LL	-1068
apsu	-1069
▁would	-1070
apsule	-1071
anced	-1072
fect	-1073
▁failure	-1074
aged	-1075
▁qu	-1076
3.	-1077
yst	-1078
▁end	-1079
ise	-1080
▁down	-1081
ning	-1082
▁PA	-1083
oley	-1084
SITIONAL	-1085
▁rehab	-1086
inopril	-1087
ark	-1088
▁me	-1089
▁neurolog	-1090
ree	-1091
isinopril	-1092
hylaxis	-1093
▁risk	-1094
urrent	-1095
IA	-1096
▁can	-1097
▁op	-1098
TE	-1099
▁presents	-1100
iat	-1101
athe	-1102
sych	-1103
▁one	-1104
are	-1105
▁sched	-1106
ven	-1107
▁appropri	-1108
▁requir	-1109
▁diffic	-1110
▁mor	-1111
tic	-1112
sis	-1113
pon	-1114
ascular	-1115
ob	-1116
▁TRANSITIONAL	-1117
erm	-1118
▁SU	-1119
▁dil	-1120
▁advanced	-1121
▁evaluated	-1122
▁repeat	-1123
▁fib	-1124
pointment	-1125
▁et	-1126
▁instructions	-1127
madin	-1128
orted	-1129
▁dep	-1130
amily	-1131
▁Ad	-1132
iated	-1133
▁min	-1134
ikely	-1135
ume	-1136
rated	-1137
▁evaluation	-1138
▁MRI	-1139
▁now	-1140
▁details	-1141
▁use	-1142
▁last	-1143
▁Home	-1144
▁5.	-1145
fort	-1146
▁edema	-1147
▁diagn	-1148
▁CXR	-1149
▁appointment	-1150
▁taking	-1151
▁multiple	-1152
formed	-1153
▁cardiac	-1154
▁intact	-1155
VA	-1156
asix	-1157
atheter	-1158
▁Cont	-1159
▁complete	-1160
▁BP	-1161
▁past	-1162
▁level	-1163
▁difficult	-1164
veal	-1165
▁Hyper	-1166
▁fluids	-1167
▁arter	-1168
▁fracture	-1169
▁As	-1170
abet	-1171
▁fin	-1172
▁high	-1173
▁DVT	-1174
▁inf	-1175
▁note	-1176
▁unc	-1177
ulin	-1178
▁month	-1179
DM	-1180
LA	-1181
▁Ch	-1182
▁There	-1183
▁tr	-1184
▁heart	-1185
▁restarted	-1186
EF	-1187
ire	-1188
AB	-1189
ool	-1190
▁des	-1191
▁however	-1192
▁most	-1193
omiting	-1194
hea	-1195
▁metoprolol	-1196
roid	-1197
▁hemod	-1198
▁appear	-1199
arr	-1200
▁intake	-1201
lem	-1202
ycodone	-1203
ctivity	-1204
▁made	-1205
▁prop	-1206
aneous	-1207
▁red	-1208
ural	-1209
▁voiding	-1210
▁CAD	-1211
MP	-1212
▁fem	-1213
▁Pain	-1214
▁small	-1215
air	-1216
▁50	-1217
raz	-1218
velo	-1219
tens	-1220
▁/	-1221
▁catheter	-1222
alc	-1223
▁extremity	-1224
agul	-1225
▁medical	-1226
▁Neuro	-1227
▁than	-1228
oscopy	-1229
▁cultures	-1230
onia	-1231
▁more	-1232
put	-1233
ration	-1234
▁AC	-1235
iop	-1236
ung	-1237
▁cell	-1238
▁sl	-1239
gress	-1240
▁orth	-1241
▁hypot	-1242
▁Am	-1243
▁times	-1244
ycard	-1245
▁pressure	-1246
ities	-1247
SE	-1248
epend	-1249
hes	-1250
romb	-1251
▁transitioned	-1252
ynam	-1253
▁ambulating	-1254
sed	-1255
crib	-1256
ING	-1257
CA	-1258
▁pending	-1259
▁>	-1260
▁followed	-1261
ipro	-1262
omycin	-1263
ied	-1264
▁CON	-1265
▁previous	-1266
▁call	-1267
▁25	-1268
▁severe	-1269
▁Capsule	-1270
arrhea	-1271
▁us	-1272
ici	-1273
KG	-1274
uk	-1275
▁reveal	-1276
▁family	-1277
▁develo	-1278
▁surgical	-1279
▁EKG	-1280
reath	-1281
day	-1282
gest	-1283
ancer	-1284
▁bilateral	-1285
▁30	-1286
ices	-1287
▁full	-1288
lox	-1289
▁able	-1290
▁Per	-1291
aging	-1292
OL	-1293
▁hyd	-1294
▁panc	-1295
▁stop	-1296
fore	-1297
▁reported	-1298
onst	-1299
outh	-1300
▁Post	-1301
SION	-1302
▁dos	-1303
ubated	-1304
▁anemia	-1305
▁including	-1306
AC	-1307
▁performed	-1308
ism	-1309
▁Follow	-1310
ribut	-1311
▁tube	-1312
▁en	-1313
▁team	-1314
▁mouth	-1315
odium	-1316
▁decreased	-1317
operatively	-1318
ented	-1319
▁worsening	-1320
ord	-1321
▁appropriate	-1322
ert	-1323
▁rout	-1324
acer	-1325
▁routine	-1326
▁seiz	-1327
▁Hct	-1328
acin	-1329
▁6.	-1330
▁0.	-1331
▁event	-1332
coh	-1333
▁hemodynam	-1334
▁fall	-1335
▁stool	-1336
imary	-1337
▁Cons	-1338
▁#.	-1339
▁breath	-1340
▁Trans	-1341
▁rad	-1342
▁war	-1343
▁incision	-1344
ace	-1345
anding	-1346
▁assist	-1347
▁(___	-1348
luc	-1349
ipation	-1350
ophen	-1351
▁function	-1352
▁bec	-1353
8.	-1354
ame	-1355
▁improvement	-1356
▁addition	-1357
ancomycin	-1358
▁att	-1359
▁insulin	-1360
▁placement	-1361
PR	-1362
▁UTI	-1363
▁thought	-1364
VIC	-1365
▁gast	-1366
-9	-1367
▁scheduled	-1368
▁bet	-1369
▁EX	-1370
cribed	-1371
her	-1372
oagul	-1373
▁occ	-1374
ater	-1375
▁24	-1376
▁cancer	-1377
▁heparin	-1378
▁mass	-1379
▁par	-1380
▁could	-1381
▁main	-1382
ension	-1383
▁stent	-1384
ful	-1385
▁physical	-1386
flox	-1387
ym	-1388
URE	-1389
redn	-1390
erg	-1391
isone	-1392
▁ke	-1393
▁reco	-1394
ESS	-1395
ime	-1396
▁DM	-1397
▁den	-1398
▁dri	-1399
▁since	-1400
▁being	-1401
▁ben	-1402
▁soft	-1403
roke	-1404
▁antic	-1405
▁gro	-1406
▁positive	-1407
chem	-1408
usion	-1409
floxacin	-1410
▁etiology	-1411
etamin	-1412
▁ster	-1413
▁stud	-1414
etaminophen	-1415
iety	-1416
▁within	-1417
ule	-1418
▁related	-1419
▁result	-1420
▁dem	-1421
▁issues	-1422
piratory	-1423
▁artery	-1424
inary	-1425
FT	-1426
go	-1427
▁once	-1428
▁Cr	-1429
▁prophylaxis	-1430
xiety	-1431
rill	-1432
▁Met	-1433
inine	-1434
odes	-1435
PD	-1436
ood	-1437
▁short	-1438
▁ly	-1439
▁poor	-1440
ffect	-1441
▁only	-1442
reatinine	-1443
▁monitoring	-1444
25	-1445
▁output	-1446
ers	-1447
fusion	-1448
▁spe	-1449
▁OF	-1450
▁vomiting	-1451
imal	-1452
tensive	-1453
au	-1454
▁ult	-1455
▁diarrhea	-1456
razole	-1457
ologist	-1458
active	-1459
▁PACU	-1460
oot	-1461
▁part	-1462
▁liver	-1463
GN	-1464
ycardia	-1465
▁aspirin	-1466
sequ	-1467
TEN	-1468
DI	-1469
▁drainage	-1470
DING	-1471
par	-1472
ication	-1473
▁ear	-1474
▁pneumonia	-1475
▁test	-1476
nea	-1477
▁get	-1478
0*	-1479
▁inj	-1480
▁finding	-1481
rillation	-1482
▁enc	-1483
5.	-1484
DW	-1485
----	-1486
7.	-1487
NEG	-1488
etry	-1489
▁ser	-1490
-0.	-1491
▁prov	-1492
▁operating	-1493
▁scan	-1494
▁500	-1495
▁culture	-1496
cohol	-1497
▁difficulty	-1498
▁___:	-1499
elling	-1500
▁const	-1501
▁lesion	-1502
▁It	-1503
ok	-1504
esis	-1505
▁ver	-1506
ender	-1507
30	-1508
abetes	-1509
▁recommend	-1510
▁hemodynamically	-1511
▁After	-1512
wise	-1513
▁RDW	-1514
YS	-1515
▁colon	-1516
othy	-1517
itamin	-1518
ick	-1519
▁morning	-1520
▁syst	-1521
▁ID	-1522
ysis	-1523
▁psych	-1524
▁revealed	-1525
▁assistance	-1526
CV	-1527
▁encour	-1528
▁closely	-1529
iation	-1530
▁sent	-1531
arcotic	-1532
▁feel	-1533
▁RBC	-1534
▁RX	-1535
ren	-1536
LD	-1537
▁several	-1538
ylen	-1539
▁anticoagul	-1540
▁MEDICAL	-1541
normal	-1542
rednisone	-1543
▁Medic	-1544
gen	-1545
▁please	-1546
▁him	-1547
ressing	-1548
asis	-1549
▁episodes	-1550
▁Continue	-1551
ylenol	-1552
▁done	-1553
gb	-1554
ocytosis	-1555
▁lisinopril	-1556
▁ir	-1557
umed	-1558
▁fevers	-1559
▁PM	-1560
▁long	-1561
▁suggest	-1562
▁#*	-1563
▁EXAM	-1564
vention	-1565
**	-1566
▁TID	-1567
ipine	-1568
▁CK	-1569
rine	-1570
▁primary	-1571
▁every	-1572
▁hypertension	-1573
RGICAL	-1574
PER	-1575
▁supp	-1576
12	-1577
raw	-1578
▁cough	-1579
▁SURGICAL	-1580
▁ON	-1581
OB	-1582
IES	-1583
▁two	-1584
▁start	-1585
▁require	-1586
▁imaging	-1587
fir	-1588
LERG	-1589
▁Acute	-1590
▁mal	-1591
VICE	-1592
▁leg	-1593
LERGIES	-1594
▁thromb	-1595
▁yo	-1596
▁PROC	-1597
utic	-1598
▁Un	-1599
ras	-1600
▁PROCED	-1601
▁7.	-1602
6.	-1603
arge	-1604
YSICAL	-1605
ALLERGIES	-1606
▁j	-1607
chan	-1608
▁PROCEDURE	-1609
SER	-1610
SIVE	-1611
▁vs	-1612
▁IVF	-1613
▁def	-1614
▁ER	-1615
arding	-1616
▁inpatient	-1617
TENDING	-1618
▁DIS	-1619
ution	-1620
SEX	-1621
▁(2	-1622
ATTENDING	-1623
sue	-1624
SERVICE	-1625
ulitis	-1626
JOR	-1627
▁DIA	-1628
opathy	-1629
lerg	-1630
▁INVA	-1631
MAJOR	-1632
▁INVASIVE	-1633
urrently	-1634
▁pat	-1635
though	-1636
▁ADM	-1637
uc	-1638
umb	-1639
ink	-1640
▁fibrillation	-1641
arkable	-1642
▁Chronic	-1643
▁atrial	-1644
▁tach	-1645
night	-1646
▁effect	-1647
fused	-1648
▁8.	-1649
▁chem	-1650
▁presentation	-1651
ISSION	-1652
▁diures	-1653
▁ADMISSION	-1654
▁subsequ	-1655
ined	-1656
▁does	-1657
▁Hgb	-1658
▁Is	-1659
▁ang	-1660
▁ph	-1661
▁lev	-1662
▁biop	-1663
▁episode	-1664
ukocytosis	-1665
itation	-1666
▁next	-1667
logy	-1668
▁PE	-1669
INT	-1670
▁ple	-1671
ov	-1672
CHI	-1673
aud	-1674
▁MEDICATIONS	-1675
order	-1676
▁respiratory	-1677
akness	-1678
OSIS	-1679
▁HCT	-1680
▁val	-1681
venox	-1682
lip	-1683
▁dry	-1684
▁dist	-1685
▁car	-1686
▁PRES	-1687
▁count	-1688
▁obtained	-1689
ulo	-1690
▁pers	-1691
ache	-1692
rease	-1693
▁demonst	-1694
PAST	-1695
▁vol	-1696
▁COMP	-1697
ectomy	-1698
terior	-1699
round	-1700
rug	-1701
plant	-1702
▁these	-1703
ma	-1704
acerb	-1705
▁progress	-1706
▁alcohol	-1707
NESS	-1708
▁tablet	-1709
▁eff	-1710
▁vis	-1711
▁cor	-1712
ULT	-1713
▁heal	-1714
▁14	-1715
rate	-1716
itional	-1717
▁dressing	-1718
IAL	-1719
▁ischem	-1720
LAINT	-1721
▁COMPLAINT	-1722
▁ce	-1723
▁MCV	-1724
▁15	-1725
▁ILL	-1726
▁loss	-1727
▁ILLNESS	-1728
▁SB	-1729
▁PRESENT	-1730
HISTORY	-1731
equ	-1732
CHIEF	-1733
▁known	-1734
▁foley	-1735
urgery	-1736
▁sim	-1737
▁active	-1738
PHYSICAL	-1739
UP	-1740
▁narcotic	-1741
▁DIAGN	-1742
ERD	-1743
▁PMH	-1744
ments	-1745
fib	-1746
LOW	-1747
orrh	-1748
▁move	-1749
▁lung	-1750
▁ICU	-1751
▁RES	-1752
RON	-1753
▁Che	-1754
▁stroke	-1755
▁abnormal	-1756
▁air	-1757
mia	-1758
▁OSH	-1759
farin	-1760
OLLOW	-1761
▁services	-1762
▁However	-1763
▁bact	-1764
TIN	-1765
▁Likely	-1766
▁where	-1767
lex	-1768
▁discussion	-1769
going	-1770
▁inv	-1771
pnea	-1772
▁swelling	-1773
▁constipation	-1774
▁sus	-1775
requ	-1776
▁()	-1777
▁anticoagulation	-1778
ded	-1779
▁Activity	-1780
▁adequ	-1781
▁oxycodone	-1782
▁abs	-1783
▁exacerb	-1784
ergency	-1785
ang	-1786
▁having	-1787
▁LFT	-1788
OCIAL	-1789
▁developed	-1790
▁11	-1791
rox	-1792
▁Cl	-1793
▁comfort	-1794
ts	-1795
open	-1796
▁intra	-1797
▁sa	-1798
iral	-1799
▁COPD	-1800
▁stopped	-1801
▁early	-1802
emide	-1803
▁hypo	-1804
▁DISPO	-1805
▁female	-1806
▁remain	-1807
▁prn	-1808
AMILY	-1809
audid	-1810
▁upon	-1811
▁es	-1812
▁place	-1813
▁ul	-1814
▁arri	-1815
▁lim	-1816
cious	-1817
RONIC	-1818
▁labs	-1819
▁recently	-1820
▁Mental	-1821
SOCIAL	-1822
lucose	-1823
▁CTA	-1824
-4.	-1825
▁coumadin	-1826
▁recurrent	-1827
structed	-1828
FAMILY	-1829
old	-1830
▁weakness	-1831
elv	-1832
▁total	-1833
▁encouraged	-1834
▁DIAGNOSIS	-1835
ciousness	-1836
uter	-1837
PI	-1838
▁mid	-1839
ocus	-1840
▁CONDI	-1841
rim	-1842
lert	-1843
▁80	-1844
itt	-1845
herent	-1846
▁Alert	-1847
▁CHRONIC	-1848
▁ASA	-1849
rasound	-1850
MEDIC	-1851
ritis	-1852
▁comp	-1853
usc	-1854
ompl	-1855
▁recovery	-1856
▁anti	-1857
lod	-1858
MEDICATIONS	-1859
uria	-1860
▁very	-1861
▁meds	-1862
▁months	-1863
▁hypotension	-1864
▁male	-1865
▁prednisone	-1866
▁reports	-1867
orvastatin	-1868
▁Clear	-1869
▁DISPOSITION	-1870
▁CONDITION	-1871
▁large	-1872
▁sat	-1873
:*	-1874
▁extubated	-1875
enosis	-1876
▁acc	-1877
-3.	-1878
ste	-1879
section	-1880
▁creatinine	-1881
▁CHF	-1882
ention	-1883
▁unit	-1884
kin	-1885
▁cause	-1886
2,	-1887
OLLOWUP	-1888
alk	-1889
ULTS	-1890
them	-1891
▁ery	-1892
line	-1893
▁vancomycin	-1894
60	-1895
FOLLOWUP	-1896
iaz	-1897
idne	-1898
▁NPO	-1899
▁bre	-1900
▁RESULTS	-1901
▁presenting	-1902
▁biopsy	-1903
hyth	-1904
▁instructed	-1905
▁X	-1906
olol	-1907
▁diagnosis	-1908
ymptom	-1909
▁MCHC	-1910
firmed	-1911
▁bed	-1912
▁wean	-1913
gly	-1914
▁required	-1915
eneral	-1916
TINENT	-1917
lean	-1918
▁checked	-1919
remarkable	-1920
▁upper	-1921
)*	-1922
les	-1923
▁Ambul	-1924
▁mental	-1925
▁volume	-1926
-4	-1927
▁Wh	-1928
▁ulcer	-1929
ype	-1930
PERTINENT	-1931
▁findings	-1932
▁cipro	-1933
alp	-1934
▁workup	-1935
ouse	-1936
▁stenosis	-1937
-8	-1938
▁about	-1939
ins	-1940
▁unremarkable	-1941
irrh	-1942
▁steroid	-1943
============	-1944
▁Release	-1945
▁CV	-1946
▁otherwise	-1947
▁rate	-1948
▁mod	-1949
▁overnight	-1950
ict	-1951
▁clean	-1952
▁Di	-1953
▁interactive	-1954
enter	-1955
idney	-1956
▁stand	-1957
RY	-1958
alcium	-1959
▁bl	-1960
▁complicated	-1961
▁Plt	-1962
rain	-1963
▁del	-1964
▁sinus	-1965
ript	-1966
▁injur	-1967
iod	-1968
ust	-1969
oman	-1970
▁agre	-1971
irrhosis	-1972
▁CA	-1973
▁regarding	-1974
bs	-1975
▁site	-1976
▁hemorrh	-1977
TH	-1978
lodipine	-1979
▁again	-1980
▁erythem	-1981
▁Level	-1982
osed	-1983
▁GERD	-1984
▁ST	-1985
▁seizure	-1986
▁changed	-1987
▁prescribed	-1988
-10	-1989
mission	-1990
▁intervention	-1991
▁ultrasound	-1992
ec	-1993
▁If	-1994
▁chole	-1995
ates	-1996
lood	-1997
ressed	-1998
MI	-1999
▁tap	-2000
▁consult	-2001
▁lasix	-2002
plac	-2003
▁routinely	-2004
nia	-2005
▁lym	-2006
▁Ambulatory	-2007
▁Consciousness	-2008
▁(___)	-2009
nal	-2010
▁process	-2011
▁twice	-2012
medi	-2013
▁block	-2014
▁goal	-2015
▁ve	-2016
yp	-2017
▁before	-2018
utaneous	-2019
ential	-2020
▁woman	-2021
▁oxy	-2022
▁fac	-2023
▁EG	-2024
gan	-2025
▁SBP	-2026
9.	-2027
▁Na	-2028
tered	-2029
idemia	-2030
▁orthop	-2031
▁Hypertension	-2032
▁sens	-2033
emp	-2034
irst	-2035
ODE	-2036
adder	-2037
▁app	-2038
▁81	-2039
▁coherent	-2040
other	-2041
roidism	-2042
▁hel	-2043
INE	-2044
▁statin	-2045
▁EGD	-2046
ually	-2047
eutic	-2048
▁Res	-2049
▁hx	-2050
ability	-2051
▁requiring	-2052
▁leukocytosis	-2053
ray	-2054
cont	-2055
▁obstruction	-2056
▁change	-2057
▁AN	-2058
2*	-2059
-1.	-2060
===	-2061
ferred	-2062
ally	-2063
▁hematoc	-2064
▁frequ	-2065
mitt	-2066
▁continu	-2067
▁urinary	-2068
▁both	-2069
du	-2070
rome	-2071
▁tender	-2072
▁Im	-2073
▁transplant	-2074
▁LFTs	-2075
▁night	-2076
▁Left	-2077
▁they	-2078
gth	-2079
▁results	-2080
▁Transitional	-2081
▁lymph	-2082
▁Cardi	-2083
▁adj	-2084
▁Chest	-2085
▁rev	-2086
▁here	-2087
IV	-2088
▁Issues	-2089
▁Full	-2090
ortic	-2091
phal	-2092
cutaneous	-2093
▁J	-2094
▁Ext	-2095
▁neph	-2096
▁TTE	-2097
peri	-2098
▁comm	-2099
▁Right	-2100
ependent	-2101
Daily	-2102
lipidemia	-2103
▁drink	-2104
we	-2105
▁exacerbation	-2106
▁Ox	-2107
▁unclear	-2108
TIVE	-2109
apar	-2110
▁oxygen	-2111
▁anxiety	-2112
▁Lasix	-2113
▁whe	-2114
▁currently	-2115
▁av	-2116
▁below	-2117
▁line	-2118
▁aw	-2119
▁pass	-2120
ady	-2121
fen	-2122
1,	-2123
▁returned	-2124
▁tra	-2125
▁sur	-2126
▁Init	-2127
▁vent	-2128
lam	-2129
▁prob	-2130
▁demonstrated	-2131
▁UA	-2132
utr	-2133
avix	-2134
▁units	-2135
▁Sodium	-2136
ics	-2137
▁exp	-2138
sel	-2139
▁determ	-2140
cg	-2141
▁Se	-2142
▁quest	-2143
▁gr	-2144
▁During	-2145
▁II	-2146
▁scale	-2147
▁Ind	-2148
▁Hem	-2149
▁Rec	-2150
▁ERCP	-2151
sth	-2152
▁metast	-2153
▁less	-2154
▁erythema	-2155
ye	-2156
▁intermitt	-2157
▁RR	-2158
▁experi	-2159
ish	-2160
ancy	-2161
iew	-2162
▁Cou	-2163
erate	-2164
ised	-2165
mep	-2166
▁disorder	-2167
meprazole	-2168
iding	-2169
imately	-2170
▁Hep	-2171
▁systolic	-2172
▁ran	-2173
iciency	-2174
▁warfarin	-2175
▁Yes	-2176
tion	-2177
▁stress	-2178
eth	-2179
▁MR	-2180
ymptomatic	-2181
SR	-2182
reasing	-2183
ropon	-2184
hythm	-2185
ocusate	-2186
▁redu	-2187
▁kidney	-2188
set	-2189
▁psychiat	-2190
▁pot	-2191
ndrome	-2192
▁dyspnea	-2193
row	-2194
ocial	-2195
aring	-2196
lemetry	-2197
epression	-2198
agyl	-2199
ysm	-2200
▁du	-2201
▁complain	-2202
ocal	-2203
HS	-2204
openia	-2205
▁HE	-2206
▁gra	-2207
▁onc	-2208
reatitis	-2209
▁RU	-2210
▁Hyp	-2211
▁doses	-2212
▁EF	-2213
▁slow	-2214
▁swit	-2215
atitis	-2216
remia	-2217
▁shortness	-2218
PRN	-2219
ftri	-2220
▁subsequently	-2221
▁Pro	-2222
▁cover	-2223
▁discussed	-2224
▁Code	-2225
axone	-2226
▁ambulate	-2227
▁weaned	-2228
ociated	-2229
▁============	-2230
sthma	-2231
▁abscess	-2232
▁maintained	-2233
ites	-2234
▁distal	-2235
▁fact	-2236
tain	-2237
▁office	-2238
cept	-2239
▁Will	-2240
▁supple	-2241
▁PT	-2242
▁Blood	-2243
ftriaxone	-2244
enic	-2245
▁Pre	-2246
▁caus	-2247
arg	-2248
▁ago	-2249
▁iron	-2250
ident	-2251
▁viral	-2252
augh	-2253
▁studies	-2254
oral	-2255
▁infect	-2256
ACT	-2257
▁still	-2258
-13	-2259
▁emergency	-2260
bal	-2261
▁CKD	-2262
▁abdomen	-2263
▁denies	-2264
▁infectious	-2265
▁help	-2266
▁standpoint	-2267
▁record	-2268
▁adequate	-2269
▁Coumadin	-2270
hyd	-2271
▁Not	-2272
▁admin	-2273
gment	-2274
▁stren	-2275
ontaneous	-2276
▁injury	-2277
▁arrival	-2278
arm	-2279
▁although	-2280
uration	-2281
▁effusion	-2282
ize	-2283
▁additional	-2284
▁independ	-2285
▁underst	-2286
▁first	-2287
▁Independent	-2288
▁Foley	-2289
▁asymptomatic	-2290
▁removal	-2291
ICU	-2292
▁none	-2293
omp	-2294
epam	-2295
VR	-2296
ications	-2297
▁neck	-2298
quid	-2299
uterol	-2300
▁contact	-2301
dominal	-2302
vole	-2303
▁cirrhosis	-2304
buterol	-2305
lergies	-2306
ogram	-2307
leep	-2308
verse	-2309
▁gu	-2310
OH	-2311
▁hematocrit	-2312
aughter	-2313
▁support	-2314
▁9.	-2315
load	-2316
rology	-2317
▁hematoma	-2318
▁Aspirin	-2319
▁Con	-2320
▁independently	-2321
arb	-2322
ctro	-2323
▁depression	-2324
▁prec	-2325
▁taper	-2326
piration	-2327
▁telemetry	-2328
ash	-2329
▁spontaneous	-2330
▁doing	-2331
cyst	-2332
ps	-2333
nee	-2334
▁325	-2335
▁syndrome	-2336
▁HR	-2337
ilar	-2338
▁tachycardia	-2339
sing	-2340
ward	-2341
▁unable	-2342
▁notable	-2343
likely	-2344
rap	-2345
RO	-2346
▁few	-2347
▁diabetes	-2348
ource	-2349
▁malign	-2350
▁house	-2351
▁slight	-2352
abs	-2353
▁confirmed	-2354
idine	-2355
▁walk	-2356
UM	-2357
▁free	-2358
pected	-2359
entin	-2360
▁headache	-2361
▁pancreatitis	-2362
▁starting	-2363
▁ech	-2364
▁expl	-2365
artan	-2366
roxine	-2367
▁associated	-2368
▁order	-2369
▁Stable	-2370
▁minimal	-2371
MS	-2372
ature	-2373
▁abuse	-2374
▁previously	-2375
ified	-2376
▁feeling	-2377
othyroxine	-2378
cal	-2379
▁assess	-2380
▁contribut	-2381
omplicated	-2382
otherapy	-2383
▁Anemia	-2384
ex	-2385
UN	-2386
ensive	-2387
atremia	-2388
▁thor	-2389
▁Ex	-2390
▁200	-2391
▁repair	-2392
1*	-2393
▁mot	-2394
erapeutic	-2395
▁cyst	-2396
▁palp	-2397
▁ref	-2398
▁reple	-2399
artment	-2400
rel	-2401
▁liquid	-2402
abap	-2403
tes	-2404
▁PN	-2405
▁nur	-2406
▁clinical	-2407
abapentin	-2408
glyc	-2409
▁lact	-2410
▁increase	-2411
▁obs	-2412
ronch	-2413
▁into	-2414
▁hip	-2415
aking	-2416
▁CODE	-2417
▁events	-2418
▁06	-2419
▁initiated	-2420
▁60	-2421
▁Et	-2422
▁ongoing	-2423
▁managed	-2424
▁syn	-2425
amine	-2426
▁initial	-2427
▁replac	-2428
▁NG	-2429
atology	-2430
▁cath	-2431
▁LD	-2432
uch	-2433
▁dict	-2434
▁Serv	-2435
▁18	-2436
▁PCA	-2437
▁05	-2438
▁lob	-2439
ez	-2440
▁sliding	-2441
▁Do	-2442
▁benef	-2443
draw	-2444
▁used	-2445
▁spi	-2446
arcin	-2447
▁nod	-2448
IT	-2449
ount	-2450
▁reas	-2451
▁side	-2452
▁lapar	-2453
hr	-2454
▁hypox	-2455
pite	-2456
▁emb	-2457
▁HLD	-2458
ody	-2459
▁vascular	-2460
▁var	-2461
▁dictated	-2462
▁brain	-2463
ili	-2464
lying	-2465
▁arm	-2466
▁graft	-2467
cope	-2468
▁tit	-2469
alysis	-2470
▁Service	-2471
CO	-2472
▁because	-2473
emic	-2474
▁cellulitis	-2475
▁atorvastatin	-2476
▁switched	-2477
last	-2478
▁Physical	-2479
▁tolerate	-2480
-14	-2481
▁amlodipine	-2482
▁cyc	-2483
cript	-2484
otomy	-2485
▁lovenox	-2486
▁Tylenol	-2487
every	-2488
ave	-2489
OT	-2490
ctal	-2491
▁aortic	-2492
____	-2493
▁drop	-2494
iented	-2495
rief	-2496
ened	-2497
asone	-2498
▁colonoscopy	-2499
▁foot	-2500
▁esoph	-2501
▁colle	-2502
ementia	-2503
formin	-2504
▁sleep	-2505
▁kept	-2506
▁drip	-2507
sures	-2508
▁Known	-2509
ctroly	-2510
▁imp	-2511
reatic	-2512
▁06:	-2513
▁source	-2514
▁prot	-2515
3,	-2516
phine	-2517
less	-2518
ONE	-2519
▁asc	-2520
▁completed	-2521
upro	-2522
▁orthopedic	-2523
▁strength	-2524
▁Metoprolol	-2525
▁complications	-2526
▁levels	-2527
ician	-2528
NR	-2529
uprofen	-2530
▁knee	-2531
▁Allergies	-2532
▁resection	-2533
▁Of	-2534
▁withdraw	-2535
▁ESR	-2536
▁2.5	-2537
▁complication	-2538
▁Diagn	-2539
3*	-2540
▁Bact	-2541
▁phys	-2542
▁resolution	-2543
▁Drug	-2544
rast	-2545
▁port	-2546
olus	-2547
▁QHS	-2548
▁cholecyst	-2549
▁great	-2550
▁Glucose	-2551
▁pressures	-2552
roc	-2553
osition	-2554
▁z	-2555
▁Care	-2556
▁sodium	-2557
▁pleural	-2558
▁hand	-2559
AS	-2560
▁Ph	-2561
▁NAD	-2562
hal	-2563
▁rhythm	-2564
▁review	-2565
je	-2566
STE	-2567
▁Creat	-2568
5%	-2569
tt	-2570
▁numb	-2571
▁mob	-2572
BD	-2573
9*	-2574
▁steroids	-2575
▁aspiration	-2576
na	-2577
▁uncomplicated	-2578
▁today	-2579
▁With	-2580
▁None	-2581
▁overload	-2582
▁10.	-2583
▁#)	-2584
pathy	-2585
olid	-2586
ffer	-2587
▁Lisinopril	-2588
▁increasing	-2589
oscopic	-2590
arcinoma	-2591
▁For	-2592
▁=	-2593
uture	-2594
▁amount	-2595
ife	-2596
▁spontaneously	-2597
▁MI	-2598
▁vag	-2599
▁chills	-2600
ves	-2601
CT	-2602
▁TSH	-2603
pic	-2604
ably	-2605
▁pul	-2606
▁PPI	-2607
tr	-2608
▁path	-2609
▁*0	-2610
utrition	-2611
▁activity	-2612
▁tenderness	-2613
▁persistent	-2614
▁area	-2615
▁UR	-2616
▁diuresis	-2617
lamm	-2618
▁resp	-2619
▁Other	-2620
▁cleared	-2621
▁oriented	-2622
▁three	-2623
▁mcg	-2624
▁pelv	-2625
rea	-2626
iness	-2627
▁Surgery	-2628
▁restart	-2629
mic	-2630
▁doct	-2631
ited	-2632
ofloxacin	-2633
▁around	-2634
6*	-2635
▁Acetaminophen	-2636
▁Prop	-2637
▁bearing	-2638
▁chemotherapy	-2639
▁pur	-2640
▁dilaudid	-2641
encephal	-2642
▁Dil	-2643
4*	-2644
▁brief	-2645
aching	-2646
▁NE	-2647
▁orthost	-2648
inate	-2649
allow	-2650
utes	-2651
TACT	-2652
▁study	-2653
▁hemorrhage	-2654
ination	-2655
▁13	-2656
▁By	-2657
▁*0*	-2658
▁invol	-2659
▁coronary	-2660
ABG	-2661
▁problem	-2662
▁arran	-2663
azole	-2664
▁current	-2665
▁metastatic	-2666
kal	-2667
▁years	-2668
▁evaluate	-2669
▁dire	-2670
▁seizures	-2671
▁med	-2672
▁light	-2673
▁minutes	-2674
▁bili	-2675
iff	-2676
US	-2677
▁cerv	-2678
mm	-2679
▁subcutaneous	-2680
▁later	-2681
▁standing	-2682
▁considered	-2683
▁advised	-2684
▁intermittent	-2685
▁ischemia	-2686
▁Pulmonary	-2687
8*	-2688
▁valve	-2689
iph	-2690
▁coun	-2691
▁RA	-2692
▁ceftriaxone	-2693
▁acid	-2694
▁CBC	-2695
▁pan	-2696
▁neurologically	-2697
AR	-2698
▁Medications	-2699
ula	-2700
▁gtt	-2701
7*	-2702
▁pac	-2703
▁determined	-2704
ping	-2705
lor	-2706
▁unlikely	-2707
▁AV	-2708
▁infar	-2709
▁appeared	-2710
▁SOB	-2711
CUTE	-2712
▁understanding	-2713
ricular	-2714
▁encephal	-2715
▁grow	-2716
▁provided	-2717
▁spl	-2718
▁onset	-2719
uretic	-2720
▁prescript	-2721
▁prox	-2722
▁poly	-2723
rict	-2724
▁HCO	-2725
▁stage	-2726
▁07	-2727
-2.	-2728
▁such	-2729
▁ven	-2730
▁tropon	-2731
▁became	-2732
▁worked	-2733
▁movement	-2734
▁Depression	-2735
▁moderate	-2736
rth	-2737
▁Also	-2738
azepam	-2739
▁respon	-2740
▁Upon	-2741
eld	-2742
▁opt	-2743
rest	-2744
▁CABG	-2745
10	-2746
▁Discharged	-2747
▁collection	-2748
▁spec	-2749
▁ens	-2750
ock	-2751
▁bladder	-2752
▁150	-2753
▁Inc	-2754
▁Urine	-2755
▁teaching	-2756
▁HIV	-2757
▁denied	-2758
▁wall	-2759
▁general	-2760
▁breast	-2761
▁angi	-2762
istory	-2763
▁recommendations	-2764
▁RUQ	-2765
als	-2766
▁doctor	-2767
ocol	-2768
urysm	-2769
oly	-2770
of	-2771
ovascular	-2772
▁neurology	-2773
emed	-2774
▁nodule	-2775
pect	-2776
▁alert	-2777
vertic	-2778
▁health	-2779
▁75	-2780
aine	-2781
ccess	-2782
▁ensure	-2783
▁skin	-2784
ires	-2785
▁avoid	-2786
▁deli	-2787
▁Urea	-2788
hesia	-2789
▁Bas	-2790
pine	-2791
▁gl	-2792
ned	-2793
▁went	-2794
▁UreaN	-2795
▁ACUTE	-2796
entive	-2797
▁hernia	-2798
uros	-2799
▁malignancy	-2800
lop	-2801
▁sided	-2802
▁lesions	-2803
▁despite	-2804
▁Lev	-2805
▁Ap	-2806
▁sugar	-2807
zym	-2808
romycin	-2809
▁Docusate	-2810
▁resumed	-2811
omfort	-2812
changed	-2813
uma	-2814
▁water	-2815
▁questions	-2816
▁symptomatic	-2817
▁trial	-2818
▁dialysis	-2819
▁underlying	-2820
▁diagnosed	-2821
ulf	-2822
▁posterior	-2823
▁Tw	-2824
atele	-2825
▁supplement	-2826
▁Repeat	-2827
▁PC	-2828
▁AM	-2829
ather	-2830
▁ile	-2831
astolic	-2832
▁vein	-2833
ech	-2834
oots	-2835
▁physician	-2836
▁code	-2837
▁HS	-2838
▁discuss	-2839
▁lobe	-2840
▁my	-2841
rought	-2842
GY	-2843
▁open	-2844
▁withdrawal	-2845
▁better	-2846
urosemide	-2847
▁conver	-2848
ient	-2849
▁partic	-2850
▁ischemic	-2851
▁list	-2852
orsemide	-2853
▁bronch	-2854
▁future	-2855
de	-2856
ieved	-2857
▁400	-2858
▁AST	-2859
▁patch	-2860
PAP	-2861
rew	-2862
▁1000	-2863
▁300	-2864
▁RRR	-2865
▁LDL	-2866
▁keep	-2867
▁showing	-2868
▁Over	-2869
▁ciprofloxacin	-2870
▁progressive	-2871
▁brought	-2872
esthesia	-2873
ayed	-2874
vir	-2875
▁07:	-2876
▁Was	-2877
▁sed	-2878
▁preca	-2879
ontin	-2880
▁factors	-2881
#1.	-2882
▁--	-2883
stomy	-2884
OM	-2885
▁05:	-2886
▁issue	-2887
▁resume	-2888
▁slightly	-2889
Gap	-2890
▁followup	-2891
▁cm	-2892
▁Lo	-2893
▁hepatic	-2894
▁Del	-2895
▁pancreatic	-2896
▁suggestive	-2897
▁cr	-2898
▁Calcium	-2899
▁LAD	-2900
urgical	-2901
▁dosing	-2902
azine	-2903
▁enzym	-2904
glycemia	-2905
▁0.5	-2906
▁bolus	-2907
▁daughter	-2908
▁extensive	-2909
fep	-2910
▁They	-2911
▁oste	-2912
▁wat	-2913
▁00	-2914
▁read	-2915
no	-2916
▁biliary	-2917
▁En	-2918
oking	-2919
▁swallow	-2920
▁cardiology	-2921
fepime	-2922
▁diuresed	-2923
AP	-2924
▁PNA	-2925
▁diuretic	-2926
▁agreement	-2927
▁inflamm	-2928
▁Col	-2929
▁ascites	-2930
▁mildly	-2931
▁AnGap	-2932
▁ACTIVE	-2933
▁prog	-2934
function	-2935
▁incentive	-2936
gressive	-2937
ocaine	-2938
apid	-2939
▁make	-2940
lev	-2941
ian	-2942
acent	-2943
▁anterior	-2944
▁meas	-2945
▁ambulation	-2946
▁appears	-2947
mediate	-2948
▁spine	-2949
▁protocol	-2950
zz	-2951
▁range	-2952
pass	-2953
actone	-2954
▁Two	-2955
venous	-2956
-13.	-2957
▁Bactrim	-2958
▁prevent	-2959
▁empir	-2960
renal	-2961
cus	-2962
▁11.	-2963
▁super	-2964
▁separ	-2965
▁Labs	-2966
▁Initially	-2967
ipheral	-2968
▁date	-2969
ccessful	-2970
▁Diagnosis	-2971
▁CM	-2972
▁URINE	-2973
▁food	-2974
▁verbal	-2975
▁hr	-2976
▁decided	-2977
▁encephalopathy	-2978
UR	-2979
▁dizz	-2980
▁omeprazole	-2981
hyper	-2982
▁pe	-2983
▁bypass	-2984
▁embol	-2985
▁wheez	-2986
▁dementia	-2987
▁tox	-2988
ctrolytes	-2989
▁trended	-2990
▁stap	-2991
dis	-2992
▁department	-2993
resent	-2994
osyn	-2995
surgery	-2996
▁enzymes	-2997
▁Consider	-2998
▁ALT	-2999
▁tylenol	-3000
ivan	-3001
ICC	-3002
▁lip	-3003
ered	-3004
▁ESRD	-3005
▁response	-3006
adol	-3007
ptic	-3008
br	-3009
▁ill	-3010
▁possibly	-3011
▁NGT	-3012
▁benefit	-3013
▁intr	-3014
ertion	-3015
▁bro	-3016
▁indicated	-3017
way	-3018
astric	-3019
:*0	-3020
▁musc	-3021
▁adminis	-3022
lon	-3023
▁Abdominal	-3024
▁retention	-3025
isions	-3026
▁scre	-3027
othyroidism	-3028
▁form	-3029
iasis	-3030
▁PICC	-3031
▁decision	-3032
itus	-3033
illin	-3034
▁heav	-3035
▁differ	-3036
▁refer	-3037
▁chol	-3038
-7	-3039
▁gastro	-3040
kle	-3041
▁contrast	-3042
▁reli	-3043
▁divertic	-3044
enna	-3045
▁point	-3046
▁brad	-3047
▁type	-3048
▁therapeutic	-3049
▁testing	-3050
arrow	-3051
▁limits	-3052
▁temp	-3053
NI	-3054
▁cervical	-3055
.)	-3056
af	-3057
▁Cipro	-3058
▁asthma	-3059
▁AF	-3060
▁needs	-3061
▁Abs	-3062
▁imm	-3063
▁albuterol	-3064
ageal	-3065
▁tis	-3066
▁DNR	-3067
▁greater	-3068
-6	-3069
geon	-3070
▁Ant	-3071
▁grew	-3072
▁bilaterally	-3073
▁examin	-3074
▁colitis	-3075
▁History	-3076
▁similar	-3077
▁Orth	-3078
▁dehyd	-3079
▁much	-3080
col	-3081
▁16	-3082
▁az	-3083
▁morphine	-3084
▁counsel	-3085
▁spirom	-3086
▁Prophylaxis	-3087
▁levothyroxine	-3088
▁patients	-3089
▁breathing	-3090
▁EEG	-3091
▁stab	-3092
icard	-3093
▁facility	-3094
▁Has	-3095
▁decomp	-3096
▁metformin	-3097
rin	-3098
ocytopenia	-3099
▁bid	-3100
▁Lovenox	-3101
ithromycin	-3102
to	-3103
▁Started	-3104
▁Renal	-3105
▁draw	-3106
▁radiation	-3107
▁(2)	-3108
▁suspic	-3109
▁mL	-3110
▁hold	-3111
umor	-3112
▁provider	-3113
▁via	-3114
▁beta	-3115
antus	-3116
kalemia	-3117
emb	-3118
▁ruled	-3119
▁based	-3120
--------	-3121
2:	-3122
▁Psych	-3123
▁rapid	-3124
▁clinically	-3125
essel	-3126
VD	-3127
arone	-3128
▁safe	-3129
rist	-3130
▁distress	-3131
ested	-3132
▁rash	-3133
volemic	-3134
▁Int	-3135
ording	-3136
▁unchanged	-3137
ostomy	-3138
▁1.5	-3139
yclo	-3140
ling	-3141
▁anal	-3142
▁Admission	-3143
con	-3144
▁aggressive	-3145
▁ane	-3146
olactone	-3147
▁bacter	-3148
▁Disposition	-3149
▁While	-3150
pra	-3151
▁narcotics	-3152
li	-3153
actions	-3154
▁prost	-3155
▁Mult	-3156
▁dysfunction	-3157
▁expressed	-3158
▁began	-3159
-5	-3160
▁Plavix	-3161
rolled	-3162
▁laparoscopic	-3163
ameth	-3164
▁Diabetes	-3165
▁simvastatin	-3166
▁intubated	-3167
rium	-3168
piron	-3169
lagyl	-3170
iodarone	-3171
3-2	-3172
▁deficiency	-3173
▁orthostatic	-3174
▁fractures	-3175
sw	-3176
▁Instructions	-3177
▁90	-3178
ervation	-3179
asm	-3180
assium	-3181
psis	-3182
▁repleted	-3183
▁decl	-3184
▁CONTACT	-3185
▁abnormalities	-3186
▁described	-3187
Hy	-3188
▁medicine	-3189
▁tissue	-3190
oprazole	-3191
▁levofloxacin	-3192
▁compression	-3193
▁planned	-3194
▁four	-3195
isted	-3196
▁therefore	-3197
heck	-3198
▁slowly	-3199
sartan	-3200
tiaz	-3201
SD	-3202
otid	-3203
▁hypertensive	-3204
▁postoperative	-3205
▁hepatitis	-3206
▁catheterization	-3207
▁necess	-3208
▁focal	-3209
▁elevation	-3210
▁Mon	-3211
pironolactone	-3212
ugment	-3213
tern	-3214
▁movements	-3215
▁replacement	-3216
▁ordered	-3217
elf	-3218
aban	-3219
▁load	-3220
▁SC	-3221
▁Den	-3222
▁exc	-3223
▁bone	-3224
▁aneurysm	-3225
▁Vancomycin	-3226
tiazem	-3227
▁drug	-3228
-12.	-3229
▁administered	-3230
▁gabapentin	-3231
▁pathology	-3232
chanical	-3233
▁blocker	-3234
▁redness	-3235
ypical	-3236
▁along	-3237
vered	-3238
▁verbalized	-3239
▁social	-3240
▁observation	-3241
▁Most	-3242
agia	-3243
▁age	-3244
erc	-3245
DNI	-3246
▁echo	-3247
ses	-3248
known	-3249
GU	-3250
▁fing	-3251
▁vaginal	-3252
for	-3253
▁healing	-3254
ives	-3255
▁lead	-3256
▁defic	-3257
▁Abd	-3258
▁hal	-3259
eremia	-3260
▁deg	-3261
▁benign	-3262
▁Mild	-3263
side	-3264
▁Sub	-3265
▁separately	-3266
▁diastolic	-3267
▁grad	-3268
▁17	-3269
▁prote	-3270
pec	-3271
▁discomfort	-3272
not	-3273
event	-3274
rosis	-3275
▁upt	-3276
▁produ	-3277
orax	-3278
ccinate	-3279
ster	-3280
empt	-3281
▁concerns	-3282
▁acetaminophen	-3283
bral	-3284
ured	-3285
STEMI	-3286
▁approx	-3287
▁vitamin	-3288
wh	-3289
▁08	-3290
head	-3291
▁thy	-3292
oxic	-3293
▁unevent	-3294
▁afib	-3295
▁uneventful	-3296
abolic	-3297
▁09	-3298
▁ACE	-3299
time	-3300
▁evening	-3301
▁aut	-3302
ias	-3303
Ac	-3304
clear	-3305
PE	-3306
▁diffuse	-3307
▁12.5	-3308
admission	-3309
▁ankle	-3310
▁glucose	-3311
ones	-3312
▁watched	-3313
heum	-3314
▁Non	-3315
▁gent	-3316
▁successful	-3317
RGERY	-3318
▁PU	-3319
▁break	-3320
▁General	-3321
▁warm	-3322
etal	-3323
▁infarct	-3324
▁Followup	-3325
▁PTT	-3326
▁600	-3327
▁45	-3328
▁toile	-3329
▁Sus	-3330
▁anesthesia	-3331
▁drive	-3332
▁comfortable	-3333
▁voided	-3334
▁tumor	-3335
4,	-3336
▁final	-3337
usted	-3338
▁least	-3339
▁incisions	-3340
▁confusion	-3341
▁period	-3342
▁Cardiac	-3343
▁Sh	-3344
▁Fac	-3345
atig	-3346
▁arth	-3347
▁eye	-3348
▁trauma	-3349
▁All	-3350
▁EtOH	-3351
▁radi	-3352
▁analges	-3353
▁04	-3354
▁EC	-3355
ired	-3356
▁meth	-3357
▁When	-3358
▁self	-3359
▁append	-3360
▁gastric	-3361
▁nas	-3362
▁hypon	-3363
▁arranged	-3364
▁cardiologist	-3365
▁term	-3366
▁hydration	-3367
antoprazole	-3368
▁Condition	-3369
oneph	-3370
▁expected	-3371
-12	-3372
▁resid	-3373
▁visit	-3374
▁coverage	-3375
▁Medication	-3376
▁HCV	-3377
▁JP	-3378
▁records	-3379
▁called	-3380
ocum	-3381
▁shower	-3382
ulose	-3383
▁respond	-3384
ugmentin	-3385
▁vas	-3386
▁Em	-3387
▁cardiovascular	-3388
▁heavy	-3389
▁Hyperlipidemia	-3390
▁SI	-3391
lob	-3392
▁added	-3393
ilol	-3394
ina	-3395
▁suic	-3396
▁bradycardia	-3397
24	-3398
action	-3399
II	-3400
imm	-3401
iatry	-3402
olate	-3403
▁Vitamin	-3404
▁contributing	-3405
▁like	-3406
HTN	-3407
▁syncope	-3408
▁Diet	-3409
▁peri	-3410
▁aden	-3411
▁sit	-3412
▁HCP	-3413
acic	-3414
▁lack	-3415
▁pack	-3416
▁Adverse	-3417
▁dizziness	-3418
▁Reactions	-3419
▁Held	-3420
idural	-3421
ithiasis	-3422
ounds	-3423
▁liquids	-3424
erved	-3425
▁allow	-3426
▁Ur	-3427
▁Hyd	-3428
▁norm	-3429
ush	-3430
▁illness	-3431
▁agreed	-3432
▁according	-3433
▁Last	-3434
OP	-3435
▁refused	-3436
resis	-3437
▁brid	-3438
urred	-3439
▁surgeon	-3440
▁Due	-3441
▁tri	-3442
PN	-3443
▁mobility	-3444
▁comb	-3445
▁grade	-3446
▁white	-3447
▁gall	-3448
▁stabil	-3449
▁US	-3450
▁10:	-3451
itro	-3452
▁NS	-3453
▁strict	-3454
▁femoral	-3455
▁elective	-3456
ait	-3457
vedilol	-3458
aminitis	-3459
▁CR	-3460
los	-3461
▁HEENT	-3462
▁improving	-3463
▁eating	-3464
▁MICU	-3465
▁ventricular	-3466
▁oncology	-3467
▁Neurology	-3468
▁stools	-3469
▁longer	-3470
▁included	-3471
▁Hypothyroidism	-3472
0,	-3473
▁CVA	-3474
▁using	-3475
ront	-3476
▁fist	-3477
▁mechanical	-3478
▁proximal	-3479
▁attempt	-3480
You	-3481
▁ident	-3482
▁calcium	-3483
▁peripheral	-3484
▁frequent	-3485
▁same	-3486
umbar	-3487
olding	-3488
▁nursing	-3489
cm	-3490
▁necessary	-3491
▁experience	-3492
▁states	-3493
▁mm	-3494
▁schedule	-3495
abetic	-3496
▁represent	-3497
▁significantly	-3498
▁docum	-3499
▁08:	-3500
▁adjusted	-3501
lar	-3502
acentesis	-3503
1:	-3504
▁Atrial	-3505
▁Denies	-3506
▁internal	-3507
mediately	-3508
▁toilet	-3509
▁answ	-3510
▁vessel	-3511
▁torsemide	-3512
ologies	-3513
ritten	-3514
var	-3515
▁09:	-3516
ibuprofen	-3517
▁exertion	-3518
▁prescription	-3519
▁outside	-3520
onate	-3521
▁declined	-3522
oving	-3523
▁OM	-3524
▁reduced	-3525
An	-3526
▁neurologic	-3527
▁dehydration	-3528
▁growth	-3529
▁NC	-3530
▁abd	-3531
▁transfusion	-3532
▁bath	-3533
▁reason	-3534
iac	-3535
▁their	-3536
formation	-3537
▁Oper	-3538
edside	-3539
asive	-3540
▁deemed	-3541
▁HF	-3542
olar	-3543
atigue	-3544
▁presumed	-3545
ible	-3546
▁cal	-3547
amethasone	-3548
▁reass	-3549
▁mic	-3550
▁cap	-3551
inol	-3552
▁pelvic	-3553
▁sepsis	-3554
▁NSTEMI	-3555
▁extremities	-3556
▁tract	-3557
▁inje	-3558
▁subsequent	-3559
lect	-3560
▁stated	-3561
IUM	-3562
▁Unclear	-3563
▁varices	-3564
▁48	-3565
▁XL	-3566
othorax	-3567
ator	-3568
▁partial	-3569
-8.	-3570
1.5	-3571
▁TAB	-3572
▁wife	-3573
▁04:	-3574
▁Facility	-3575
▁leak	-3576
enced	-3577
ograp	-3578
▁Head	-3579
▁stone	-3580
▁Plan	-3581
ived	-3582
vascular	-3583
▁spirometry	-3584
▁cholang	-3585
cology	-3586
gular	-3587
ump	-3588
▁Ce	-3589
▁add	-3590
▁speech	-3591
ella	-3592
▁Dilaudid	-3593
▁gram	-3594
▁lift	-3595
▁vanc	-3596
▁epidural	-3597
yclovir	-3598
▁11:	-3599
▁cef	-3600
▁allerg	-3601
▁Gen	-3602
▁receive	-3603
ents	-3604
%.	-3605
▁hyponatremia	-3606
oneal	-3607
▁sugars	-3608
▁mel	-3609
▁them	-3610
▁Mrs	-3611
▁complaints	-3612
urate	-3613
▁cere	-3614
sided	-3615
idal	-3616
oint	-3617
▁35	-3618
▁mark	-3619
▁sensation	-3620
imus	-3621
▁Recomm	-3622
▁written	-3623
▁LLE	-3624
▁flare	-3625
▁Delayed	-3626
▁another	-3627
yne	-3628
▁decrease	-3629
▁continues	-3630
ME	-3631
enolol	-3632
▁OB	-3633
aqu	-3634
▁urg	-3635
▁meet	-3636
etine	-3637
astic	-3638
▁limited	-3639
umin	-3640
rex	-3641
▁commun	-3642
▁boots	-3643
▁bacteremia	-3644
▁complained	-3645
omet	-3646
▁local	-3647
iatric	-3648
utions	-3649
▁never	-3650
▁ECG	-3651
▁outpt	-3652
▁ultimately	-3653
▁furosemide	-3654
▁Oxycodone	-3655
suff	-3656
▁put	-3657
▁finger	-3658
▁hospice	-3659
▁electrolytes	-3660
iative	-3661
▁PRBC	-3662
ranial	-3663
▁PH	-3664
▁downtr	-3665
▁Mg	-3666
▁Pres	-3667
aker	-3668
ubation	-3669
▁thick	-3670
nes	-3671
GB	-3672
ional	-3673
▁tib	-3674
den	-3675
-9.	-3676
▁Ul	-3677
▁atenolol	-3678
▁cholecystectomy	-3679
▁plans	-3680
▁visual	-3681
ofran	-3682
ocet	-3683
▁Out	-3684
utter	-3685
igrain	-3686
▁RLE	-3687
structive	-3688
▁hypoxia	-3689
▁intravenous	-3690
▁fil	-3691
ork	-3692
▁carotid	-3693
bumin	-3694
▁12:	-3695
▁progressed	-3696
-33.	-3697
▁Pos	-3698
▁bedside	-3699
▁Dys	-3700
▁70	-3701
▁flagyl	-3702
ines	-3703
omnia	-3704
alliative	-3705
▁gastroenter	-3706
▁Prior	-3707
▁our	-3708
▁120	-3709
ocard	-3710
▁Afib	-3711
▁came	-3712
alog	-3713
▁platele	-3714
opram	-3715
▁residual	-3716
▁esophageal	-3717
see	-3718
▁ure	-3719
▁near	-3720
italopram	-3721
enz	-3722
amide	-3723
▁flow	-3724
▁capsule	-3725
onal	-3726
****	-3727
opl	-3728
▁shoulder	-3729
▁oncologist	-3730
cation	-3731
▁press	-3732
rig	-3733
▁organ	-3734
chlor	-3735
▁est	-3736
▁plavix	-3737
▁dig	-3738
▁calc	-3739
ilitation	-3740
▁lateral	-3741
▁Sin	-3742
▁troponin	-3743
▁QD	-3744
▁referred	-3745
▁12.	-3746
idental	-3747
MARY	-3748
wn	-3749
▁muc	-3750
ems	-3751
▁spent	-3752
▁compon	-3753
▁Ins	-3754
fectious	-3755
▁appropriately	-3756
▁flex	-3757
▁potential	-3758
▁Tablets	-3759
▁broad	-3760
phagia	-3761
▁lymphoma	-3762
ospital	-3763
ene	-3764
umalog	-3765
met	-3766
▁case	-3767
▁front	-3768
▁receiving	-3769
earing	-3770
▁inhal	-3771
igastric	-3772
orb	-3773
▁QPM	-3774
▁tem	-3775
acter	-3776
▁initiation	-3777
▁These	-3778
▁03	-3779
▁SURGERY	-3780
▁End	-3781
▁Had	-3782
uation	-3783
▁infer	-3784
▁BM	-3785
▁size	-3786
NT	-3787
▁Ser	-3788
▁perioperative	-3789
▁duct	-3790
▁suspicion	-3791
igm	-3792
▁Low	-3793
▁maintain	-3794
charge	-3795
rolimus	-3796
▁include	-3797
▁rule	-3798
izing	-3799
▁occas	-3800
self	-3801
▁emesis	-3802
fusions	-3803
EE	-3804
Hyper	-3805
-32.	-3806
iance	-3807
▁rib	-3808
▁thus	-3809
arth	-3810
▁uptit	-3811
▁adjust	-3812
NP	-3813
▁deferred	-3814
▁transfused	-3815
▁Lung	-3816
▁ACS	-3817
▁unless	-3818
cl	-3819
▁sal	-3820
lock	-3821
▁1,	-3822
▁RCA	-3823
armac	-3824
):	-3825
▁attribut	-3826
▁Atorvastatin	-3827
atively	-3828
40	-3829
▁drawn	-3830
▁joint	-3831
Ox	-3832
eph	-3833
20	-3834
NG	-3835
▁numbness	-3836
▁discont	-3837
▁MS	-3838
▁debr	-3839
▁requirement	-3840
▁fistula	-3841
▁XR	-3842
▁clot	-3843
▁Therapy	-3844
ween	-3845
sible	-3846
utrop	-3847
▁thyroid	-3848
onstipation	-3849
▁insuff	-3850
▁want	-3851
▁Creatinine	-3852
bl	-3853
▁facial	-3854
▁eu	-3855
ind	-3856
nl	-3857
▁Preadmission	-3858
ank	-3859
▁clon	-3860
ings	-3861
▁AR	-3862
▁risks	-3863
▁approximately	-3864
bearing	-3865
ivitamin	-3866
▁(3	-3867
▁flatus	-3868
▁Pr	-3869
olved	-3870
▁qd	-3871
▁Vital	-3872
hic	-3873
▁fatigue	-3874
▁Phos	-3875
usions	-3876
▁AS	-3877
▁injection	-3878
thal	-3879
▁develop	-3880
emaker	-3881
▁precautions	-3882
▁passed	-3883
▁hematuria	-3884
▁diltiazem	-3885
ffe	-3886
aches	-3887
▁between	-3888
▁##	-3889
entially	-3890
rum	-3891
▁01:	-3892
▁invasive	-3893
▁tam	-3894
▁psychiatric	-3895
▁component	-3896
istration	-3897
▁Omeprazole	-3898
▁responded	-3899
amycin	-3900
▁trig	-3901
IG	-3902
.5*	-3903
▁answered	-3904
OSE	-3905
▁azithromycin	-3906
ev	-3907
after	-3908
▁HY	-3909
dose	-3910
oqu	-3911
agnes	-3912
ocardi	-3913
▁Heart	-3914
ulation	-3915
▁prostate	-3916
▁lactulose	-3917
▁infil	-3918
▁amiodarone	-3919
▁RVR	-3920
ET	-3921
▁thrombosis	-3922
ches	-3923
Patient	-3924
omyopathy	-3925
levated	-3926
vomiting	-3927
▁recheck	-3928
▁spironolactone	-3929
▁groin	-3930
▁postop	-3931
▁CI	-3932
▁particip	-3933
ceived	-3934
▁pericard	-3935
▁GL	-3936
▁accordingly	-3937
cocet	-3938
6,	-3939
▁hypothy	-3940
▁beh	-3941
▁tubes	-3942
▁BPH	-3943
▁own	-3944
▁rehabilitation	-3945
▁except	-3946
ocarcinoma	-3947
▁thrombus	-3948
▁eventually	-3949
100	-3950
stance	-3951
▁NEU	-3952
▁OSA	-3953
▁progression	-3954
rob	-3955
▁Type	-3956
oom	-3957
▁peak	-3958
-5.	-3959
band	-3960
▁el	-3961
▁adequately	-3962
▁diabetic	-3963
pid	-3964
headed	-3965
▁cefepime	-3966
▁potassium	-3967
CD	-3968
▁titrated	-3969
▁portal	-3970
Im	-3971
▁Wound	-3972
itral	-3973
▁resusc	-3974
▁mach	-3975
▁undergoing	-3976
▁causing	-3977
▁smoking	-3978
-14.	-3979
▁worsened	-3980
▁holding	-3981
▁psychiatry	-3982
ret	-3983
▁reasons	-3984
▁opac	-3985
▁temper	-3986
▁experienced	-3987
gal	-3988
▁Surgical	-3989
▁pneumothorax	-3990
▁GLUC	-3991
▁Rep	-3992
ays	-3993
▁spinal	-3994
▁Disease	-3995
▁examination	-3996
usband	-3997
▁urology	-3998
EM	-3999
▁opi	-4000
▁vac	-4001
▁reduction	-4002
▁CPAP	-4003
▁2,	-4004
▁tor	-4005
▁feeds	-4006
▁hospitalized	-4007
VEF	-4008
ramadol	-4009
ycardic	-4010
▁son	-4011
▁orig	-4012
LOGY	-4013
ked	-4014
▁shock	-4015
▁FU	-4016
▁fix	-4017
orph	-4018
▁pulm	-4019
▁HGB	-4020
▁pse	-4021
#2	-4022
▁metabolic	-4023
▁getting	-4024
IP	-4025
▁losartan	-4026
▁ibuprofen	-4027
▁panel	-4028
▁analgesics	-4029
-11	-4030
▁abx	-4031
aparin	-4032
▁problems	-4033
itated	-4034
orazepam	-4035
▁HA	-4036
▁eat	-4037
▁GLUCOSE	-4038
▁accurate	-4039
▁LV	-4040
SAID	-4041
▁Following	-4042
▁notes	-4043
▁body	-4044
▁Room	-4045
▁unknown	-4046
▁prom	-4047
▁enter	-4048
▁reviewed	-4049
▁Lym	-4050
elitis	-4051
▁ent	-4052
▁motor	-4053
ished	-4054
▁Fever	-4055
oxaparin	-4056
▁direct	-4057
▁documented	-4058
▁converted	-4059
▁Initial	-4060
itations	-4061
▁diuretics	-4062
RBC	-4063
▁recurr	-4064
▁failed	-4065
▁dilated	-4066
-31.	-4067
eppra	-4068
▁activ	-4069
▁obes	-4070
▁PMHx	-4071
▁coord	-4072
Immediate	-4073
▁soften	-4074
▁Currently	-4075
▁muscle	-4076
▁===============	-4077
▁03:	-4078
adone	-4079
▁Infectious	-4080
▁py	-4081
▁MD	-4082
▁Otherwise	-4083
irub	-4084
osin	-4085
-7.	-4086
▁deficits	-4087
sions	-4088
▁dissection	-4089
▁cycle	-4090
hrs	-4091
▁occl	-4092
▁chemo	-4093
▁cord	-4094
▁bel	-4095
ellitus	-4096
▁multif	-4097
▁NT	-4098
volemia	-4099
ister	-4100
▁toxic	-4101
▁appointments	-4102
▁wheezing	-4103
TR	-4104
▁altered	-4105
▁QID	-4106
sus	-4107
▁FULL	-4108
LOR	-4109
ging	-4110
▁identified	-4111
▁Keppra	-4112
▁intrac	-4113
CHO	-4114
▁mes	-4115
▁esophag	-4116
▁Good	-4117
▁question	-4118
▁neuropathy	-4119
▁TOT	-4120
ety	-4121
▁hypotensive	-4122
▁nasal	-4123
▁VS	-4124
▁relief	-4125
oke	-4126
▁goals	-4127
▁Normal	-4128
▁So	-4129
acrolimus	-4130
▁nephro	-4131
▁III	-4132
Please	-4133
▁pacemaker	-4134
▁clears	-4135
-34.	-4136
▁immun	-4137
▁access	-4138
▁NSAID	-4139
▁acidosis	-4140
aryn	-4141
▁falls	-4142
▁carcinoma	-4143
rep	-4144
▁quick	-4145
aps	-4146
essation	-4147
▁toward	-4148
▁venous	-4149
ologic	-4150
▁inflammation	-4151
▁ET	-4152
UB	-4153
▁02:	-4154
▁dysuria	-4155
ixaban	-4156
mitted	-4157
idocaine	-4158
▁ready	-4159
-11.	-4160
▁worse	-4161
▁STAT	-4162
▁preoperative	-4163
▁#*30	-4164
longed	-4165
itoneal	-4166
▁lumbar	-4167
▁inability	-4168
8,	-4169
aresis	-4170
▁CP	-4171
▁contacted	-4172
▁cand	-4173
▁repe	-4174
▁obtain	-4175
erve	-4176
▁Anxiety	-4177
▁ECHO	-4178
▁decompens	-4179
▁prolonged	-4180
▁cessation	-4181
▁Social	-4182
▁remains	-4183
▁MRSA	-4184
▁CTAB	-4185
▁passing	-4186
▁Addition	-4187
▁staples	-4188
▁Received	-4189
▁behav	-4190
-0	-4191
ributory	-4192
lopur	-4193
▁insufficiency	-4194
omyelitis	-4195
▁pRBC	-4196
▁attributed	-4197
▁leave	-4198
ART	-4199
apine	-4200
▁differential	-4201
▁mood	-4202
▁Recommend	-4203
▁gradually	-4204
lopurinol	-4205
elvis	-4206
▁carvedilol	-4207
ycline	-4208
▁temperature	-4209
000	-4210
▁lactate	-4211
▁nitro	-4212
BS	-4213
BI	-4214
▁frontal	-4215
▁crit	-4216
arfarin	-4217
▁nature	-4218
ocardiogram	-4219
imvastatin	-4220
▁ri	-4221
▁Emergency	-4222
▁nutrition	-4223
▁sput	-4224
90	-4225
▁exerc	-4226
Cx	-4227
▁indu	-4228
oxycodone	-4229
▁cardiomyopathy	-4230
Ne	-4231
contributory	-4232
▁(4	-4233
idement	-4234
KA	-4235
ulfate	-4236
▁remainder	-4237
ching	-4238
▁recurrence	-4239
mary	-4240
-30.	-4241
sm	-4242
▁sputum	-4243
▁wnl	-4244
▁counts	-4245
▁Urinary	-4246
over	-4247
WA	-4248
▁lifting	-4249
▁(___),	-4250
▁airway	-4251
▁hypothyroidism	-4252
oratory	-4253
ceed	-4254
▁endors	-4255
▁hyperlipidemia	-4256
igmoid	-4257
▁sedation	-4258
▁educ	-4259
upp	-4260
ube	-4261
▁RDWSD	-4262
▁Iron	-4263
▁quad	-4264
REA	-4265
▁persist	-4266
▁ambulated	-4267
▁Sm	-4268
▁number	-4269
▁pulses	-4270
oin	-4271
▁inst	-4272
▁Tot	-4273
uticasone	-4274
▁headaches	-4275
domen	-4276
ostic	-4277
hib	-4278
▁interval	-4279
▁epigastric	-4280
▁Your	-4281
▁checks	-4282
▁bic	-4283
▁congest	-4284
inct	-4285
ready	-4286
▁Su	-4287
▁AND	-4288
pired	-4289
▁Take	-4290
▁cur	-4291
________	-4292
▁recorded	-4293
▁supplementation	-4294
▁nurse	-4295
▁Bet	-4296
icular	-4297
7,	-4298
THO	-4299
controlled	-4300
▁MEDICINE	-4301
losin	-4302
▁atypical	-4303
hn	-4304
iving	-4305
▁rectal	-4306
▁overall	-4307
▁bedtime	-4308
sulosin	-4309
ote	-4310
▁euvolemic	-4311
▁normalized	-4312
now	-4313
▁Lact	-4314
▁98.	-4315
▁inferior	-4316
oids	-4317
ither	-4318
oxyc	-4319
▁meals	-4320
discharge	-4321
▁weekly	-4322
ify	-4323
/7	-4324
ips	-4325
idate	-4326
▁motion	-4327
▁CIWA	-4328
▁650	-4329
▁common	-4330
▁antihyper	-4331
▁whether	-4332
▁contract	-4333
▁bur	-4334
argine	-4335
buprofen	-4336
▁Primary	-4337
lobin	-4338
▁ureter	-4339
▁administration	-4340
UE	-4341
urance	-4342
omple	-4343
▁planning	-4344
▁recovered	-4345
week	-4346
▁lbs	-4347
▁against	-4348
▁migrain	-4349
▁rheum	-4350
EA	-4351
▁combination	-4352
olysis	-4353
rohn	-4354
▁Hb	-4355
ases	-4356
▁Soft	-4357
▁mother	-4358
▁agitation	-4359
ena	-4360
▁narrow	-4361
▁empirically	-4362
▁septic	-4363
▁run	-4364
▁Senna	-4365
▁reassuring	-4366
otensive	-4367
▁Impro	-4368
osph	-4369
▁0.0	-4370
▁Cardiology	-4371
▁PROB	-4372
headedness	-4373
▁EP	-4374
onsive	-4375
▁thereafter	-4376
▁debridement	-4377
▁derm	-4378
kg	-4379
▁xray	-4380
oglobin	-4381
▁allergy	-4382
▁mening	-4383
oxetine	-4384
▁ABD	-4385
▁Dec	-4386
▁suicidal	-4387
▁possibility	-4388
dry	-4389
▁requires	-4390
▁ORTHO	-4391
▁trigg	-4392
ring	-4393
▁Pulm	-4394
iamine	-4395
▁Cell	-4396
RB	-4397
▁serum	-4398
hs	-4399
▁compar	-4400
▁pp	-4401
▁Warfarin	-4402
▁gross	-4403
▁occurred	-4404
▁ENT	-4405
▁information	-4406
▁Ibuprofen	-4407
▁bacterial	-4408
imin	-4409
-10.	-4410
▁PLT	-4411
▁transfusions	-4412
▁DES	-4413
▁accept	-4414
▁250	-4415
▁shows	-4416
▁mitral	-4417
▁immediately	-4418
▁delirium	-4419
fl	-4420
▁TPN	-4421
▁palpation	-4422
▁walking	-4423
HT	-4424
▁Orthop	-4425
illary	-4426
▁deep	-4427
NE	-4428
artum	-4429
▁Once	-4430
gested	-4431
▁loose	-4432
▁vision	-4433
▁directed	-4434
ipolar	-4435
▁neurological	-4436
IDE	-4437
des	-4438
lan	-4439
▁ate	-4440
rees	-4441
▁duod	-4442
▁Ig	-4443
▁intracranial	-4444
▁PROBLE	-4445
▁angiogram	-4446
PAEDIC	-4447
▁arrived	-4448
▁ORTHOPAEDIC	-4449
ogrel	-4450
SF	-4451
▁TH	-4452
actor	-4453
▁pharmac	-4454
ands	-4455
rant	-4456
▁beg	-4457
▁cholangitis	-4458
▁patent	-4459
diff	-4460
tensives	-4461
▁angina	-4462
▁Ult	-4463
▁how	-4464
artrate	-4465
▁quickly	-4466
▁dilation	-4467
ori	-4468
▁neutrop	-4469
▁gait	-4470
▁De	-4471
ponatremia	-4472
▁Hospital	-4473
ressive	-4474
▁Pneum	-4475
▁neurosurgery	-4476
▁bowels	-4477
umer	-4478
▁supr	-4479
▁degrees	-4480
In	-4481
▁already	-4482
▁effects	-4483
▁BNP	-4484
▁ing	-4485
ressor	-4486
VICU	-4487
empted	-4488
▁succinate	-4489
VI	-4490
asia	-4491
▁state	-4492
▁gastritis	-4493
▁ORI	-4494
▁bridge	-4495
▁Constipation	-4496
▁Heparin	-4497
yelo	-4498
▁CVICU	-4499
▁thorough	-4500
▁conc	-4501
▁stabilized	-4502
▁operation	-4503
▁ORIF	-4504
ogenic	-4505
▁bactrim	-4506
▁Outpatient	-4507
▁Exam	-4508
▁13.	-4509
itidine	-4510
▁closed	-4511
▁MM	-4512
▁marked	-4513
orphone	-4514
▁Bil	-4515
REAT	-4516
▁repeated	-4517
▁BPs	-4518
ational	-4519
rec	-4520
▁folate	-4521
▁palliative	-4522
▁saw	-4523
▁Urology	-4524
▁import	-4525
urm	-4526
▁thigh	-4527
inery	-4528
▁Asthma	-4529
▁Gabapentin	-4530
▁reaction	-4531
▁machinery	-4532
▁screening	-4533
▁nebul	-4534
▁sigmoid	-4535
▁restric	-4536
▁going	-4537
▁lantus	-4538
▁cannot	-4539
9,	-4540
aph	-4541
▁ostomy	-4542
▁fore	-4543
▁incontin	-4544
▁(___).	-4545
ralazine	-4546
▁PCI	-4547
CON	-4548
bladder	-4549
oderate	-4550
-15	-4551
unt	-4552
▁just	-4553
▁FEN	-4554
▁Ativan	-4555
▁causes	-4556
LQ	-4557
▁six	-4558
▁Abdomen	-4559
ner	-4560
▁cholecystitis	-4561
▁frequency	-4562
▁consideration	-4563
▁Ech	-4564
lasty	-4565
▁suspected	-4566
▁told	-4567
▁dex	-4568
▁Ass	-4569
▁AMA	-4570
▁act	-4571
▁osteomyelitis	-4572
▁replaced	-4573
▁suggested	-4574
▁SUM	-4575
▁mis	-4576
vement	-4577
',	-4578
▁AA	-4579
ropium	-4580
▁SUMMARY	-4581
▁counseling	-4582
▁score	-4583
▁midline	-4584
incter	-4585
void	-4586
▁Second	-4587
▁bal	-4588
▁memb	-4589
▁palpitations	-4590
▁Rem	-4591
▁cyt	-4592
through	-4593
▁Fe	-4594
urmur	-4595
bil	-4596
pm	-4597
▁Beta	-4598
▁QT	-4599
▁Inter	-4600
▁leuk	-4601
oxysm	-4602
▁diverticulitis	-4603
▁complex	-4604
itic	-4605
itiv	-4606
▁ativan	-4607
NC	-4608
▁Call	-4609
ATE	-4610
acute	-4611
adiness	-4612
▁paracentesis	-4613
leman	-4614
istended	-4615
▁To	-4616
olectomy	-4617
▁cells	-4618
▁Stroke	-4619
NL	-4620
▁occlusion	-4621
▁TA	-4622
-29.	-4623
lation	-4624
▁sounds	-4625
▁gastrop	-4626
enia	-4627
▁nerve	-4628
une	-4629
ialysis	-4630
▁CN	-4631
▁sph	-4632
▁Etiology	-4633
iazide	-4634
▁DC	-4635
▁130	-4636
asyn	-4637
▁epile	-4638
quired	-4639
Cont	-4640
▁pelvis	-4641
▁Contact	-4642
▁gentleman	-4643
cephal	-4644
▁Levothyroxine	-4645
▁completely	-4646
▁lacer	-4647
ESSION	-4648
irt	-4649
▁measures	-4650
▁frequently	-4651
itting	-4652
▁sec	-4653
evere	-4654
▁softener	-4655
▁Tra	-4656
▁nebs	-4657
▁Hx	-4658
bound	-4659
▁AD	-4660
▁empiric	-4661
▁referral	-4662
▁either	-4663
inc	-4664
▁restarting	-4665
▁pregn	-4666
▁Resolved	-4667
▁requested	-4668
gia	-4669
▁GEN	-4670
▁hydro	-4671
▁admissions	-4672
ream	-4673
▁ulcers	-4674
oxysmal	-4675
azol	-4676
▁Nausea	-4677
oses	-4678
-6.	-4679
▁neurovascular	-4680
▁consolid	-4681
▁CRP	-4682
▁CARE	-4683
▁usual	-4684
▁nebuliz	-4685
chemic	-4686
▁Elevated	-4687
irubin	-4688
▁obesity	-4689
▁comfortably	-4690
▁behavior	-4691
▁8.6	-4692
▁providers	-4693
▁Improved	-4694
oxin	-4695
BB	-4696
▁uter	-4697
▁ide	-4698
itrate	-4699
min	-4700
▁determine	-4701
▁serial	-4702
▁Operating	-4703
▁postoperatively	-4704
▁drinking	-4705
▁depend	-4706
▁brace	-4707
▁making	-4708
HY	-4709
emet	-4710
▁CREAT	-4711
▁pantoprazole	-4712
▁infusion	-4713
▁STATUS	-4714
▁candidate	-4715
aedic	-4716
▁poorly	-4717
▁New	-4718
▁arthritis	-4719
och	-4720
▁cx	-4721
ats	-4722
▁endoscopy	-4723
otension	-4724
▁140	-4725
▁Lungs	-4726
Ch	-4727
oz	-4728
copal	-4729
FEN	-4730
▁Crohn	-4731
80	-4732
▁Would	-4733
▁transient	-4734
ellow	-4735
▁ETOH	-4736
▁LVEF	-4737
▁murmur	-4738
▁(6	-4739
▁group	-4740
▁55	-4741
▁febrile	-4742
▁Fl	-4743
▁indic	-4744
▁versus	-4745
jection	-4746
▁DO	-4747
astom	-4748
▁Extended	-4749
chym	-4750
▁follows	-4751
▁what	-4752
15	-4753
▁AT	-4754
▁transaminitis	-4755
▁Fib	-4756
▁Oxyc	-4757
▁Tropon	-4758
ococ	-4759
▁effusions	-4760
▁Panc	-4761
▁successfully	-4762
▁cc	-4763
▁RE	-4764
raline	-4765
▁troponins	-4766
▁1.3	-4767
▁crack	-4768
▁wash	-4769
▁resuscitation	-4770
▁flank	-4771
▁protein	-4772
▁PSH	-4773
ocrine	-4774
▁stron	-4775
▁Amlodipine	-4776
rous	-4777
ertraline	-4778
▁intermittently	-4779
pod	-4780
icial	-4781
▁ME	-4782
▁equ	-4783
▁ICD	-4784
▁temporal	-4785
▁exercise	-4786
▁inflammatory	-4787
▁pleas	-4788
▁Sp	-4789
▁involvement	-4790
ext	-4791
oxycycline	-4792
▁Neurosurgery	-4793
oquel	-4794
▁scler	-4795
▁rever	-4796
▁medically	-4797
ternal	-4798
lim	-4799
▁dia	-4800
▁Sc	-4801
▁infilt	-4802
▁Simvastatin	-4803
rad	-4804
▁Rest	-4805
▁stones	-4806
▁ste	-4807
Bili	-4808
▁gua	-4809
▁lipase	-4810
▁defect	-4811
▁carb	-4812
iable	-4813
▁aware	-4814
intact	-4815
▁many	-4816
▁Fail	-4817
UNT	-4818
▁qhs	-4819
▁eval	-4820
2-2	-4821
lap	-4822
▁hct	-4823
▁Augmentin	-4824
▁step	-4825
ION	-4826
▁toe	-4827
▁attempted	-4828
▁nodules	-4829
▁observed	-4830
▁insurance	-4831
▁arrest	-4832
riend	-4833
▁Insulin	-4834
▁segment	-4835
▁echocardiogram	-4836
itr	-4837
▁CSF	-4838
oxime	-4839
▁meeting	-4840
oler	-4841
chloroth	-4842
▁fat	-4843
ogen	-4844
▁MRCP	-4845
▁incontinence	-4846
▁POT	-4847
▁pressors	-4848
▁CMV	-4849
term	-4850
▁WNL	-4851
▁TOTAL	-4852
agnesium	-4853
gnitive	-4854
▁incidental	-4855
▁COUNT	-4856
▁neurovascularly	-4857
logist	-4858
▁1.2	-4859
etite	-4860
▁ORTHOPAEDICS	-4861
▁Flu	-4862
▁undergo	-4863
▁Clin	-4864
ATION	-4865
▁agents	-4866
▁pacing	-4867
Hx	-4868
BV	-4869
coholic	-4870
aff	-4871
▁resist	-4872
▁sensitive	-4873
▁Adv	-4874
▁nad	-4875
house	-4876
ata	-4877
▁ablation	-4878
▁wires	-4879
▁AL	-4880
▁conserv	-4881
pelvis	-4882
▁Secondary	-4883
rade	-4884
rog	-4885
▁acyclovir	-4886
▁adenocarcinoma	-4887
▁colo	-4888
di	-4889
▁=============	-4890
▁Lip	-4891
▁ppx	-4892
ulopathy	-4893
▁LP	-4894
ummary	-4895
▁tramadol	-4896
▁saturation	-4897
▁stents	-4898
▁antib	-4899
▁atelect	-4900
▁ileostomy	-4901
TP	-4902
▁UREA	-4903
idone	-4904
▁splint	-4905
▁lightheadedness	-4906
▁BUN	-4907
entral	-4908
▁AP	-4909
▁incident	-4910
▁pericardial	-4911
▁max	-4912
cts	-4913
▁amounts	-4914
iast	-4915
GI	-4916
▁IH	-4917
Acute	-4918
▁Drugs	-4919
▁husband	-4920
chlorothiazide	-4921
▁extra	-4922
▁OMR	-4923
▁try	-4924
imming	-4925
▁platelets	-4926
opt	-4927
▁Daily	-4928
▁caused	-4929
▁sphincter	-4930
▁CD	-4931
▁100%	-4932
▁hepat	-4933
▁arr	-4934
SG	-4935
odiatry	-4936
▁Family	-4937
▁acceptable	-4938
▁phen	-4939
▁sx	-4940
▁obvious	-4941
▁*2*	-4942
▁dexamethasone	-4943
podoxime	-4944
▁normotensive	-4945
▁Hepatitis	-4946
enza	-4947
und	-4948
▁hrs	-4949
▁hypovolemia	-4950
▁CBD	-4951
luenza	-4952
▁continuing	-4953
▁125	-4954
▁SOD	-4955
▁ra	-4956
▁Intra	-4957
▁corre	-4958
▁Alk	-4959
▁avail	-4960
acetaminophen	-4961
▁Cor	-4962
▁dev	-4963
mcg	-4964
▁hard	-4965
▁hypoglycemia	-4966
▁thoracic	-4967
luded	-4968
▁breakthrough	-4969
▁rebound	-4970
▁Hemat	-4971
ocytic	-4972
▁swimming	-4973
▁NOT	-4974
ravastatin	-4975
▁SODIUM	-4976
▁pap	-4977
▁appetite	-4978
▁Rad	-4979
▁Incision	-4980
▁remove	-4981
ption	-4982
▁regurg	-4983
▁obstructive	-4984
lux	-4985
errit	-4986
therap	-4987
▁request	-4988
▁nec	-4989
▁life	-4990
▁Additionally	-4991
▁98	-4992
▁stricture	-4993
▁Vanc	-4994
▁solid	-4995
▁PP	-4996
▁Comm	-4997
▁Neck	-4998
▁Lantus	-4999
rat	-5000
HD	-5001
▁Dep	-5002
▁Albuterol	-5003
▁counseled	-5004
▁CAP	-5005
▁encourage	-5006
▁radiology	-5007
▁bi	-5008
ASSI	-5009
ASSIUM	-5010
▁marrow	-5011
▁Failure	-5012
▁POTASSIUM	-5013
varian	-5014
amot	-5015
▁Baseline	-5016
▁Oxy	-5017
atous	-5018
onephritis	-5019
▁atelectasis	-5020
▁GU	-5021
▁albumin	-5022
▁Ciprofloxacin	-5023
▁Discus	-5024
▁pregnancy	-5025
▁==============	-5026
jun	-5027
aden	-5028
▁micro	-5029
▁Ar	-5030
▁tachycardic	-5031
▁takes	-5032
▁mobil	-5033
▁3,	-5034
▁Although	-5035
▁precaution	-5036
▁IP	-5037
▁flat	-5038
▁PROBLEMS	-5039
▁*60	-5040
▁Further	-5041
▁Lymph	-5042
▁tests	-5043
▁melena	-5044
gm	-5045
▁gallbladder	-5046
▁reportedly	-5047
▁SV	-5048
▁Antibiotic	-5049
▁#*60	-5050
inating	-5051
▁baths	-5052
▁gas	-5053
LORIDE	-5054
atherapeutic	-5055
resp	-5056
▁walker	-5057
▁Sy	-5058
ils	-5059
▁bloody	-5060
read	-5061
▁trem	-5062
▁abnormality	-5063
FA	-5064
▁CHLORIDE	-5065
▁sing	-5066
DONE	-5067
▁embolism	-5068
▁wan	-5069
▁OT	-5070
▁fill	-5071
▁appar	-5072
/5	-5073
▁Bec	-5074
▁Stage	-5075
▁readiness	-5076
▁aid	-5077
CHF	-5078
MENT	-5079
▁diagnostic	-5080
iver	-5081
▁satur	-5082
▁rather	-5083
▁CMO	-5084
yncope	-5085
▁->	-5086
oked	-5087
▁face	-5088
ocarditis	-5089
noon	-5090
▁Monitor	-5091
▁Presented	-5092
▁Pneumonia	-5093
▁particular	-5094
rips	-5095
▁operate	-5096
confirmed	-5097
▁som	-5098
continued	-5099
▁apixaban	-5100
▁DISCHARGE	-5101
▁even	-5102
▁Vitals	-5103
spine	-5104
actorial	-5105
▁plastic	-5106
uts	-5107
▁feed	-5108
▁perfor	-5109
▁160	-5110
pecially	-5111
▁UN	-5112
▁bile	-5113
▁allopurinol	-5114
stable	-5115
▁ses	-5116
▁band	-5117
▁Extrem	-5118
5*	-5119
RBPR	-5120
▁pseud	-5121
dur	-5122
sens	-5123
▁Car	-5124
▁hydrated	-5125
▁110	-5126
phys	-5127
▁gout	-5128
icter	-5129
▁cocaine	-5130
▁%	-5131
▁GAP	-5132
▁lidocaine	-5133
▁uro	-5134
▁ANION	-5135
▁wrist	-5136
▁consist	-5137
▁compared	-5138
unct	-5139
▁prep	-5140
▁spasm	-5141
▁intubation	-5142
▁1.4	-5143
▁continuous	-5144
▁defin	-5145
roat	-5146
onc	-5147
umatic	-5148
inalysis	-5149
▁Cult	-5150
▁delivery	-5151
Hyp	-5152
▁stru	-5153
▁trache	-5154
rombocytopenia	-5155
ester	-5156
▁Regular	-5157
▁vitals	-5158
▁laceration	-5159
essment	-5160
▁Inhal	-5161
ber	-5162
▁seems	-5163
▁CHAD	-5164
orderline	-5165
▁suggesting	-5166
▁Co	-5167
▁available	-5168
▁benz	-5169
▁afternoon	-5170
eropen	-5171
▁kg	-5172
inally	-5173
▁Humalog	-5174
▁relatively	-5175
▁coli	-5176
proced	-5177
▁Multiple	-5178
▁actively	-5179
amic	-5180
▁precautionary	-5181
psy	-5182
igo	-5183
ifed	-5184
▁Recent	-5185
rating	-5186
ages	-5187
▁verte	-5188
ifically	-5189
cum	-5190
actic	-5191
rocyt	-5192
▁prescriptions	-5193
izide	-5194
▁options	-5195
▁Prednisone	-5196
-16	-5197
ble	-5198
what	-5199
▁remarkable	-5200
galy	-5201
▁saf	-5202
▁film	-5203
▁101.5	-5204
▁system	-5205
arbonate	-5206
▁includes	-5207
/6	-5208
dural	-5209
▁Diff	-5210
fection	-5211
jective	-5212
apt	-5213
▁consolidation	-5214
▁hydralazine	-5215
▁offer	-5216
-100	-5217
▁regurgitation	-5218
▁know	-5219
▁quadrant	-5220
▁resolving	-5221
=====	-5222
▁clind	-5223
onephrosis	-5224
▁gyne	-5225
▁Vascular	-5226
ronid	-5227
▁focus	-5228
▁duration	-5229
get	-5230
▁too	-5231
firm	-5232
▁fax	-5233
oDONE	-5234
▁Because	-5235
▁directly	-5236
▁OxycoDONE	-5237
pler	-5238
CODE	-5239
astatic	-5240
▁contamin	-5241
▁thiamine	-5242
moving	-5243
tube	-5244
▁stenting	-5245
isk	-5246
uff	-5247
locker	-5248
▁touch	-5249
IGHT	-5250
▁gran	-5251
▁feels	-5252
icot	-5253
evers	-5254
ored	-5255
▁asked	-5256
▁pulmon	-5257
▁died	-5258
▁education	-5259
flagyl	-5260
▁mellitus	-5261
▁Should	-5262
▁hyperkalemia	-5263
▁indication	-5264
▁purul	-5265
ronidazole	-5266
▁entire	-5267
abl	-5268
▁Hyponatremia	-5269
▁AB	-5270
▁labetal	-5271
lipizide	-5272
itu	-5273
▁procedures	-5274
erectomy	-5275
▁labetalol	-5276
osupp	-5277
isf	-5278
▁PLA	-5279
▁Duration	-5280
Ph	-5281
▁ambulatory	-5282
▁IMP	-5283
▁insomnia	-5284
▁methadone	-5285
▁functional	-5286
omach	-5287
▁tibial	-5288
▁Ca	-5289
▁phone	-5290
-35.	-5291
ubic	-5292
icotine	-5293
▁Overall	-5294
▁Since	-5295
▁hyperglycemia	-5296
compl	-5297
%,	-5298
ides	-5299
▁Leukocytosis	-5300
▁each	-5301
▁rect	-5302
▁strain	-5303
▁node	-5304
▁BRBPR	-5305
▁ma	-5306
ACTIVE	-5307
▁masses	-5308
▁lorazepam	-5309
▁amput	-5310
▁therap	-5311
▁cop	-5312
▁Multivitamin	-5313
ifedipine	-5314
oppler	-5315
entan	-5316
▁1)	-5317
▁surround	-5318
ipl	-5319
▁curves	-5320
▁why	-5321
abdominal	-5322
▁draining	-5323
▁mo	-5324
iazepam	-5325
elonephritis	-5326
-0.7	-5327
▁PER	-5328
▁altern	-5329
MB	-5330
▁safety	-5331
▁induced	-5332
▁took	-5333
tenolol	-5334
aining	-5335
▁TIA	-5336
▁collar	-5337
▁21	-5338
unately	-5339
ellar	-5340
▁somewhat	-5341
arily	-5342
partum	-5343
▁optim	-5344
▁Treated	-5345
odyne	-5346
▁consultation	-5347
ylori	-5348
▁800	-5349
▁Work	-5350
▁recs	-5351
acco	-5352
itness	-5353
..	-5354
▁dropped	-5355
▁recommendation	-5356
ift	-5357
▁living	-5358
▁ax	-5359
jor	-5360
▁etc	-5361
▁especially	-5362
▁tacrolimus	-5363
▁Oral	-5364
▁femur	-5365
▁Ep	-5366
▁legs	-5367
▁discontinu	-5368
▁Flagyl	-5369
▁ARF	-5370
TAL	-5371
max	-5372
▁CHADS	-5373
ontender	-5374
opor	-5375
▁14.	-5376
▁briefly	-5377
isol	-5378
▁prepar	-5379
▁hemodialysis	-5380
▁progressively	-5381
imer	-5382
stead	-5383
▁Atenolol	-5384
▁ovarian	-5385
gative	-5386
▁pulse	-5387
▁uptitrated	-5388
RESSION	-5389
▁systemic	-5390
eria	-5391
▁proceed	-5392
angu	-5393
▁gap	-5394
▁reactive	-5395
▁dysphagia	-5396
ixed	-5397
▁BIL	-5398
▁lit	-5399
evalu	-5400
hep	-5401
▁Units	-5402
romorphone	-5403
ABLE	-5404
flex	-5405
oracic	-5406
▁clots	-5407
▁healthy	-5408
io	-5409
▁char	-5410
▁gastroenteritis	-5411
ully	-5412
-17	-5413
▁Gl	-5414
->	-5415
▁awoke	-5416
kinesis	-5417
gu	-5418
aving	-5419
▁appl	-5420
▁program	-5421
▁stomach	-5422
▁psychiatrist	-5423
▁Acid	-5424
Ab	-5425
razodone	-5426
▁activities	-5427
▁0.1	-5428
▁SBO	-5429
▁FF	-5430
▁fx	-5431
▁tight	-5432
▁distribut	-5433
▁come	-5434
▁endomet	-5435
entanyl	-5436
orphine	-5437
▁hypoxic	-5438
▁confirm	-5439
▁Los	-5440
▁bar	-5441
iologies	-5442
▁desat	-5443
▁staff	-5444
▁involved	-5445
▁myelo	-5446
▁adrenal	-5447
▁Severe	-5448
▁relieved	-5449
eter	-5450
▁throat	-5451
▁operatively	-5452
rectomy	-5453
▁gently	-5454
ronephrosis	-5455
St	-5456
▁1:	-5457
mmet	-5458
▁EMS	-5459
▁Ret	-5460
standing	-5461
▁multifactorial	-5462
▁serologies	-5463
ND	-5464
▁wet	-5465
▁Assessment	-5466
▁Postoperative	-5467
▁Sol	-5468
down	-5469
▁satisf	-5470
ography	-5471
eropenem	-5472
▁Ob	-5473
emesis	-5474
▁external	-5475
▁pred	-5476
ylo	-5477
orts	-5478
▁Eos	-5479
▁bronchoscopy	-5480
acro	-5481
▁Therefore	-5482
▁prof	-5483
rectal	-5484
▁Antibiotics	-5485
▁Par	-5486
opressor	-5487
▁leading	-5488
oporosis	-5489
▁Hematology	-5490
▁different	-5491
▁concerned	-5492
▁19	-5493
ficial	-5494
▁single	-5495
▁give	-5496
▁thin	-5497
▁Echo	-5498
5,	-5499
▁cir	-5500
▁vom	-5501
▁character	-5502
▁IMPRESSION	-5503
agic	-5504
▁Antic	-5505
▁infections	-5506
hythmia	-5507
hip	-5508
-0.8	-5509
iliac	-5510
▁driving	-5511
aquin	-5512
▁22	-5513
TRIC	-5514
hanc	-5515
va	-5516
izure	-5517
▁prophyl	-5518
▁Moderate	-5519
======	-5520
ropathy	-5521
GERD	-5522
▁impair	-5523
▁OBSTE	-5524
▁IM	-5525
▁congestion	-5526
▁gastroparesis	-5527
No	-5528
▁GIB	-5529
▁venodyne	-5530
▁Metformin	-5531
▁STE	-5532
▁central	-5533
▁appearing	-5534
▁embolization	-5535
▁0.4	-5536
▁Though	-5537
▁colectomy	-5538
▁specifically	-5539
▁dark	-5540
▁Monos	-5541
▁begin	-5542
▁(5	-5543
TS	-5544
▁*)	-5545
▁infiltrate	-5546
▁OBSTETRIC	-5547
▁spect	-5548
bas	-5549
NECO	-5550
▁clindamycin	-5551
oboots	-5552
tender	-5553
▁sister	-5554
azolin	-5555
Phos	-5556
▁Gast	-5557
▁fusion	-5558
▁2)	-5559
▁cerebral	-5560
therapeutic	-5561
▁(4)	-5562
eflex	-5563
▁sick	-5564
mL	-5565
▁QAM	-5566
IR	-5567
▁100.	-5568
▁stim	-5569
▁top	-5570
▁moving	-5571
calc	-5572
erol	-5573
▁Neuts	-5574
atch	-5575
▁fixation	-5576
▁coag	-5577
ird	-5578
Pt	-5579
▁arterial	-5580
▁perfusion	-5581
▁trend	-5582
▁>30	-5583
▁HOS	-5584
▁Colace	-5585
▁opioid	-5586
▁Baso	-5587
▁drained	-5588
amp	-5589
▁seemed	-5590
▁Oste	-5591
▁punct	-5592
enous	-5593
▁screen	-5594
14	-5595
▁auto	-5596
▁soon	-5597
ventions	-5598
roph	-5599
▁gly	-5600
HCP	-5601
▁Symptom	-5602
▁Top	-5603
ieve	-5604
iol	-5605
antin	-5606
▁Well	-5607
phthal	-5608
▁Phone	-5609
▁sud	-5610
ces	-5611
▁unre	-5612
PITAL	-5613
▁intraoperative	-5614
▁TB	-5615
▁ureteral	-5616
▁titration	-5617
▁Commun	-5618
▁Succinate	-5619
sal	-5620
inous	-5621
▁malignant	-5622
▁packed	-5623
▁percocet	-5624
iant	-5625
onic	-5626
▁28	-5627
▁sips	-5628
▁surrounding	-5629
▁higher	-5630
▁pursue	-5631
▁absence	-5632
nel	-5633
oxicillin	-5634
▁supplemental	-5635
abine	-5636
▁symmet	-5637
▁spectrum	-5638
▁prevention	-5639
▁treatments	-5640
▁context	-5641
▁cognitive	-5642
▁supportive	-5643
▁quite	-5644
▁affect	-5645
▁cardiover	-5646
▁citalopram	-5647
TX	-5648
FTs	-5649
sterectomy	-5650
▁HOSPITAL	-5651
-0.6	-5652
▁Any	-5653
vealing	-5654
tharg	-5655
▁fell	-5656
▁Ele	-5657
▁arrange	-5658
-15.	-5659
immune	-5660
▁admit	-5661
▁Furosemide	-5662
▁criteria	-5663
▁radial	-5664
▁Imaging	-5665
▁glargine	-5666
oagulation	-5667
,000	-5668
▁Te	-5669
omegaly	-5670
▁750	-5671
▁fibroid	-5672
▁Psychiatry	-5673
▁NEURO	-5674
▁SL	-5675
▁KUB	-5676
-28.	-5677
▁Symptoms	-5678
placed	-5679
TIC	-5680
iate	-5681
▁senna	-5682
▁angiop	-5683
ulosis	-5684
esterday	-5685
▁death	-5686
▁etiologies	-5687
9%	-5688
▁cram	-5689
▁repletion	-5690
duced	-5691
▁syncopal	-5692
wards	-5693
fortunately	-5694
▁er	-5695
▁mets	-5696
GYNECO	-5697
▁informed	-5698
but	-5699
▁nl	-5700
▁think	-5701
GYNECOLOGY	-5702
▁yesterday	-5703
▁OBSTETRICS	-5704
ractory	-5705
▁appearance	-5706
▁glo	-5707
iced	-5708
▁proxy	-5709
▁augmentin	-5710
▁Heme	-5711
▁shift	-5712
▁distended	-5713
▁23	-5714
▁TEE	-5715
ect	-5716
▁occasional	-5717
▁ting	-5718
▁Stool	-5719
▁Mot	-5720
▁XRT	-5721
▁URI	-5722
▁sch	-5723
▁Bi	-5724
▁depressed	-5725
Le	-5726
▁Treat	-5727
▁Me	-5728
▁covered	-5729
▁1.1	-5730
▁closure	-5731
ytopenia	-5732
▁tapered	-5733
upational	-5734
:*0*	-5735
ringe	-5736
▁Weight	-5737
SB	-5738
athic	-5739
▁Orthopedic	-5740
irtaz	-5741
▁loc	-5742
▁Spine	-5743
▁AMS	-5744
▁37	-5745
▁borderline	-5746
▁AlkPhos	-5747
CAD	-5748
▁amputation	-5749
▁boluses	-5750
▁cran	-5751
▁TotBili	-5752
dle	-5753
▁Note	-5754
▁cane	-5755
itnessed	-5756
▁hydronephrosis	-5757
▁ket	-5758
Continue	-5759
roxy	-5760
▁HCl	-5761
▁Respiratory	-5762
▁immunosupp	-5763
actory	-5764
erenal	-5765
raight	-5766
▁NPH	-5767
▁infarction	-5768
▁ach	-5769
▁pleur	-5770
▁sensitiv	-5771
wable	-5772
▁basis	-5773
▁Des	-5774
inent	-5775
▁stability	-5776
▁vert	-5777
▁region	-5778
▁Sustained	-5779
▁Att	-5780
ising	-5781
▁sudden	-5782
▁Bilateral	-5783
ength	-5784
▁adverse	-5785
▁injuries	-5786
▁HL	-5787
▁major	-5788
aw	-5789
▁pump	-5790
/8	-5791
▁38	-5792
▁guaiac	-5793
▁endorsed	-5794
▁sphincterotomy	-5795
▁grossly	-5796
▁ventil	-5797
▁97.	-5798
▁subdural	-5799
▁nontender	-5800
▁alcoholic	-5801
icitis	-5802
▁immediate	-5803
upt	-5804
▁Resp	-5805
bing	-5806
▁fetal	-5807
ONA	-5808
▁digoxin	-5809
▁benefits	-5810
▁saline	-5811
▁unrevealing	-5812
▁letharg	-5813
PT	-5814
▁*30	-5815
kele	-5816
sub	-5817
▁sequ	-5818
He	-5819
▁UNIT	-5820
▁data	-5821
▁sats	-5822
▁got	-5823
hibitor	-5824
▁resulting	-5825
▁doxycycline	-5826
▁MCA	-5827
▁Keflex	-5828
hicle	-5829
onitis	-5830
▁mediast	-5831
▁3)	-5832
related	-5833
▁1.6	-5834
thing	-5835
xious	-5836
▁cereb	-5837
▁areas	-5838
-4.0	-5839
▁sure	-5840
▁ASS	-5841
▁iliac	-5842
▁Appear	-5843
▁Diarrhea	-5844
▁Reg	-5845
iffer	-5846
coagul	-5847
▁PVD	-5848
▁LUE	-5849
▁Ceftriaxone	-5850
▁position	-5851
▁explain	-5852
▁Go	-5853
aund	-5854
ensity	-5855
airs	-5856
▁(6)	-5857
FR	-5858
▁endocarditis	-5859
##	-5860
▁hern	-5861
onazole	-5862
pEF	-5863
Depression	-5864
▁cry	-5865
▁decline	-5866
▁lungs	-5867
ococcus	-5868
▁Val	-5869
-3.9	-5870
▁Pantoprazole	-5871
▁Now	-5872
▁Tam	-5873
▁notified	-5874
▁subacute	-5875
rot	-5876
▁precip	-5877
auc	-5878
▁tear	-5879
▁interventions	-5880
▁relievers	-5881
bow	-5882
nol	-5883
sies	-5884
▁RUE	-5885
ESSMENT	-5886
▁satisfactory	-5887
▁DKA	-5888
▁best	-5889
▁vehicle	-5890
with	-5891
aximin	-5892
▁mixed	-5893
▁72	-5894
▁lymphaden	-5895
icit	-5896
FF	-5897
▁,	-5898
▁See	-5899
▁thickening	-5900
▁hysterectomy	-5901
▁generalized	-5902
▁cycles	-5903
▁superficial	-5904
▁restriction	-5905
▁Nutrition	-5906
On	-5907
dol	-5908
EMIA	-5909
vity	-5910
▁tru	-5911
DA	-5912
Col	-5913
▁zofran	-5914
▁Coronary	-5915
▁completion	-5916
oker	-5917
▁7.5	-5918
nutrition	-5919
occ	-5920
▁rif	-5921
gener	-5922
▁degree	-5923
▁ideation	-5924
▁emerg	-5925
▁ground	-5926
odyl	-5927
▁instead	-5928
ratropium	-5929
▁Chewable	-5930
ctrolyte	-5931
surgical	-5932
▁struct	-5933
▁---------	-5934
▁Cirrhosis	-5935
asty	-5936
Hypertension	-5937
▁anastom	-5938
osorb	-5939
▁meningitis	-5940
▁downtrended	-5941
Dr	-5942
errous	-5943
▁prerenal	-5944
udom	-5945
ophil	-5946
▁zosyn	-5947
▁defer	-5948
▁drains	-5949
▁substance	-5950
▁aort	-5951
▁97	-5952
▁NSR	-5953
▁peritoneal	-5954
-140	-5955
rid	-5956
▁straight	-5957
▁Ischemic	-5958
▁PAIN	-5959
▁decompensated	-5960
▁Pot	-5961
▁pict	-5962
ulated	-5963
▁Lactate	-5964
▁crackles	-5965
ross	-5966
▁length	-5967
▁peaked	-5968
-90	-5969
▁TIP	-5970
▁trending	-5971
lier	-5972
▁SVG	-5973
▁assessment	-5974
▁Back	-5975
▁PRBCs	-5976
Chronic	-5977
-0.5	-5978
isac	-5979
▁location	-5980
aise	-5981
atosis	-5982
▁compliance	-5983
osorbide	-5984
▁offered	-5985
▁gallst	-5986
▁summary	-5987
▁CTX	-5988
▁pharmacy	-5989
▁intox	-5990
▁freely	-5991
hour	-5992
▁contractions	-5993
onas	-5994
ification	-5995
▁QTc	-5996
hest	-5997
▁vasc	-5998
▁leaving	-5999
▁palpable	-6000
aster	-6001
isacodyl	-6002
▁Poly	-6003
▁demand	-6004
▁establ	-6005
▁appendicitis	-6006
▁Postoperatively	-6007
amil	-6008
alol	-6009
▁third	-6010
▁MON	-6011
▁Neph	-6012
anset	-6013
rexate	-6014
▁eight	-6015
ansetron	-6016
▁wounds	-6017
▁laparotomy	-6018
▁COR	-6019
▁resistant	-6020
rocytic	-6021
iates	-6022
▁remaining	-6023
▁suction	-6024
▁bilirubin	-6025
gnosis	-6026
▁delay	-6027
▁hemoglobin	-6028
imp	-6029
work	-6030
CONTACT	-6031
▁Bleed	-6032
pecific	-6033
▁wanted	-6034
ty	-6035
ans	-6036
▁kep	-6037
▁SD	-6038
▁Metastatic	-6039
▁coordination	-6040
otrexate	-6041
▁picture	-6042
▁deple	-6043
icine	-6044
▁Bre	-6045
▁Morphine	-6046
ources	-6047
▁cefpodoxime	-6048
▁supplements	-6049
▁pm	-6050
ietal	-6051
OX	-6052
oll	-6053
▁NA	-6054
omin	-6055
optysis	-6056
▁tamsulosin	-6057
▁decompression	-6058
weight	-6059
keletal	-6060
glycer	-6061
flutter	-6062
▁expired	-6063
▁Liver	-6064
▁apical	-6065
▁bacteria	-6066
▁its	-6067
▁Active	-6068
▁complaining	-6069
iralax	-6070
▁unresp	-6071
▁pH	-6072
▁FOR	-6073
procedure	-6074
▁paroxysmal	-6075
estion	-6076
plasty	-6077
cending	-6078
oster	-6079
▁downtrending	-6080
▁Anticoagulation	-6081
▁irrit	-6082
emetics	-6083
symptom	-6084
loon	-6085
▁assisted	-6086
▁interventional	-6087
iotomy	-6088
chicine	-6089
▁keppra	-6090
▁involving	-6091
pres	-6092
▁lytes	-6093
▁dosed	-6094
▁earlier	-6095
▁EXT	-6096
chole	-6097
▁CC	-6098
▁Discussed	-6099
OMI	-6100
alker	-6101
▁VT	-6102
▁Skin	-6103
▁Concern	-6104
▁vertebral	-6105
uous	-6106
▁participate	-6107
▁SS	-6108
▁saturations	-6109
#1	-6110
▁preserved	-6111
carb	-6112
oxaban	-6113
▁away	-6114
-0.9	-6115
▁2-	-6116
▁nond	-6117
▁Penic	-6118
▁refractory	-6119
▁instability	-6120
Acetaminophen	-6121
CK	-6122
ORM	-6123
▁tempor	-6124
ortisone	-6125
Dis	-6126
SSA	-6127
▁DMII	-6128
aundice	-6129
▁ASSESSMENT	-6130
started	-6131
atelet	-6132
▁chair	-6133
▁elbow	-6134
▁mucos	-6135
▁overloaded	-6136
▁assessed	-6137
▁infected	-6138
▁TIPS	-6139
▁Resume	-6140
▁Admitted	-6141
▁extension	-6142
▁ward	-6143
▁tingling	-6144
▁torso	-6145
docusate	-6146
▁bag	-6147
▁STEMI	-6148
▁alone	-6149
▁pattern	-6150
▁colace	-6151
inations	-6152
▁productive	-6153
▁ey	-6154
ISS	-6155
▁urgent	-6156
▁glass	-6157
▁SA	-6158
▁PPM	-6159
▁angio	-6160
-3.5	-6161
▁Did	-6162
ulos	-6163
▁cream	-6164
▁Hypotension	-6165
▁sol	-6166
▁mast	-6167
▁rh	-6168
▁tele	-6169
▁allowed	-6170
▁perform	-6171
▁Losartan	-6172
▁dou	-6173
hetic	-6174
▁rapidly	-6175
-4.1	-6176
▁urgency	-6177
▁purulent	-6178
▁provide	-6179
LS	-6180
▁Lower	-6181
▁180	-6182
▁Line	-6183
▁tachy	-6184
▁injections	-6185
▁CAR	-6186
rophy	-6187
▁migraine	-6188
▁clopid	-6189
▁orthopaedic	-6190
▁prophylactic	-6191
▁HSV	-6192
ryl	-6193
▁MA	-6194
▁esophagus	-6195
▁pyelonephritis	-6196
▁diaph	-6197
requency	-6198
▁orthostasis	-6199
▁clonazepam	-6200
▁HCC	-6201
▁bru	-6202
sa	-6203
▁Op	-6204
▁PRO	-6205
entation	-6206
▁forward	-6207
▁Ag	-6208
izations	-6209
▁LAB	-6210
▁calf	-6211
▁Possible	-6212
▁ranitidine	-6213
▁working	-6214
▁RLQ	-6215
ODONE	-6216
▁gain	-6217
▁gluc	-6218
▁pa	-6219
▁1.7	-6220
atures	-6221
▁enhanc	-6222
2)	-6223
-3.8	-6224
▁potentially	-6225
yan	-6226
▁IVC	-6227
asteride	-6228
▁consented	-6229
▁gen	-6230
▁listed	-6231
▁Torsemide	-6232
▁NSAIDs	-6233
compliance	-6234
▁Ev	-6235
▁mater	-6236
irtazapine	-6237
eep	-6238
▁OxyC	-6239
▁sam	-6240
▁15.	-6241
▁glipizide	-6242
URSE	-6243
▁CNS	-6244
rolithiasis	-6245
▁Mother	-6246
blocker	-6247
▁sulfate	-6248
▁drops	-6249
▁appendectomy	-6250
yline	-6251
geal	-6252
▁COURSE	-6253
▁perfused	-6254
▁**	-6255
tenance	-6256
▁agree	-6257
▁flutter	-6258
▁pancreas	-6259
▁subjective	-6260
Di	-6261
illins	-6262
▁symmetric	-6263
isc	-6264
utures	-6265
▁sites	-6266
▁painful	-6267
▁Course	-6268
▁opacity	-6269
▁hematology	-6270
edema	-6271
glycemic	-6272
glycerin	-6273
▁confused	-6274
▁neutropenia	-6275
▁urinalysis	-6276
fast	-6277
▁intensive	-6278
aucoma	-6279
▁halluc	-6280
▁rupt	-6281
▁restrict	-6282
▁BB	-6283
▁UTIs	-6284
▁Gout	-6285
▁neurologist	-6286
▁prognosis	-6287
▁clopidogrel	-6288
off	-6289
Anemia	-6290
▁AVR	-6291
▁amp	-6292
0.0	-6293
▁puncture	-6294
omic	-6295
hepatic	-6296
▁irrig	-6297
▁apparent	-6298
▁postpartum	-6299
ased	-6300
▁trough	-6301
▁Days	-6302
▁demonstrate	-6303
▁OP	-6304
▁Ple	-6305
▁26	-6306
▁pRBCs	-6307
arthritis	-6308
the	-6309
iella	-6310
▁Fluticasone	-6311
▁Electrolytes	-6312
▁Multivitamins	-6313
▁NO	-6314
location	-6315
▁growing	-6316
▁bipolar	-6317
Do	-6318
▁said	-6319
▁lymphadenopathy	-6320
LM	-6321
lebs	-6322
▁unstable	-6323
ml	-6324
▁Norm	-6325
▁detailed	-6326
▁OOB	-6327
▁Differ	-6328
▁magnesium	-6329
▁enough	-6330
▁BAS	-6331
▁nor	-6332
ithromb	-6333
ze	-6334
▁rates	-6335
▁guarding	-6336
▁hemorrhagic	-6337
▁rosu	-6338
▁pleasant	-6339
▁cat	-6340
▁arrhythmia	-6341
pre	-6342
▁pursu	-6343
VC	-6344
ality	-6345
▁Comple	-6346
usive	-6347
▁duodenal	-6348
▁MSSA	-6349
aiting	-6350
▁Operative	-6351
▁explained	-6352
VP	-6353
▁staph	-6354
▁anything	-6355
▁effe	-6356
▁half	-6357
▁origin	-6358
▁electrolyte	-6359
▁Noted	-6360
atation	-6361
▁apprec	-6362
▁pounds	-6363
▁somnol	-6364
▁und	-6365
▁27	-6366
▁experienc	-6367
ora	-6368
cting	-6369
▁ileus	-6370
ield	-6371
▁bul	-6372
▁1.0	-6373
adine	-6374
unnel	-6375
▁father	-6376
▁podiatry	-6377
▁Rel	-6378
elvic	-6379
▁Prote	-6380
▁Percocet	-6381
induced	-6382
▁marg	-6383
gias	-6384
▁secret	-6385
▁Previous	-6386
▁speaking	-6387
▁nebulizers	-6388
-3.7	-6389
▁sertraline	-6390
▁medial	-6391
▁cystoscopy	-6392
ria	-6393
poke	-6394
▁PEG	-6395
view	-6396
▁VAC	-6397
▁mac	-6398
▁agitated	-6399
▁don	-6400
iteal	-6401
▁Levofloxacin	-6402
▁rosuvastatin	-6403
▁SDH	-6404
▁maintenance	-6405
-4.2	-6406
ival	-6407
▁Differential	-6408
stit	-6409
ks	-6410
▁suicide	-6411
uloskeletal	-6412
▁Avoid	-6413
▁pravastatin	-6414
opa	-6415
▁mem	-6416
▁cort	-6417
▁ability	-6418
rochlorothiazide	-6419
▁HFpEF	-6420
lebsiella	-6421
▁Sign	-6422
▁MTX	-6423
▁101.	-6424
▁distention	-6425
▁Seen	-6426
ophageal	-6427
▁sustained	-6428
▁MONOS	-6429
▁Restarted	-6430
ipital	-6431
▁splen	-6432
▁AFib	-6433
▁malaise	-6434
▁factor	-6435
conazole	-6436
ocardial	-6437
▁Penicillins	-6438
sc	-6439
▁HYPER	-6440
▁apnea	-6441
▁shaking	-6442
▁trop	-6443
▁LE	-6444
adryl	-6445
▁hypokinesis	-6446
▁might	-6447
ott	-6448
▁expos	-6449
AN	-6450
▁finish	-6451
▁vertigo	-6452
▁flap	-6453
regular	-6454
▁Through	-6455
▁CCU	-6456
▁MELD	-6457
▁descending	-6458
▁EOS	-6459
▁ausc	-6460
▁base	-6461
▁Rheum	-6462
enteric	-6463
▁PHOS	-6464
▁ROS	-6465
▁sac	-6466
lapse	-6467
utritional	-6468
▁EOMI	-6469
psia	-6470
▁aph	-6471
▁valv	-6472
▁percutaneous	-6473
▁BASOS	-6474
▁products	-6475
▁complaint	-6476
avir	-6477
▁PLAN	-6478
position	-6479
▁Tartrate	-6480
FE	-6481
sp	-6482
▁TO	-6483
▁NEUTS	-6484
▁balloon	-6485
▁loop	-6486
opliteal	-6487
▁communicated	-6488
▁Fall	-6489
▁36	-6490
itabine	-6491
▁Dose	-6492
sensitive	-6493
▁jaundice	-6494
ying	-6495
▁ortho	-6496
▁PERR	-6497
▁stain	-6498
baseline	-6499
▁Medical	-6500
▁trach	-6501
▁perforation	-6502
ostatic	-6503
▁nephropathy	-6504
▁PCR	-6505
▁Hypo	-6506
▁Cancer	-6507
LATION	-6508
▁Infection	-6509
estig	-6510
▁labor	-6511
▁revision	-6512
▁1.8	-6513
▁Fibrillation	-6514
▁degener	-6515
▁examined	-6516
▁cefazolin	-6517
rocortisone	-6518
▁condu	-6519
icteric	-6520
▁discontinue	-6521
▁dyne	-6522
▁fully	-6523
▁surve	-6524
▁Chem	-6525
▁inhaler	-6526
ithrombotic	-6527
▁tightness	-6528
=======	-6529
▁participated	-6530
ittle	-6531
▁pal	-6532
▁extended	-6533
▁rising	-6534
▁influenza	-6535
▁addressed	-6536
▁Alcohol	-6537
▁fluconazole	-6538
▁33	-6539
▁localizing	-6540
eg	-6541
▁vo	-6542
▁subtherapeutic	-6543
-4.3	-6544
sh	-6545
▁tend	-6546
▁excess	-6547
achycardia	-6548
▁SW	-6549
▁resolve	-6550
▁OxyCODONE	-6551
▁standard	-6552
▁dilatation	-6553
▁traumatic	-6554
▁DOE	-6555
▁VSS	-6556
upils	-6557
coli	-6558
▁deficit	-6559
▁dependent	-6560
Cr	-6561
phrine	-6562
▁auscult	-6563
▁angioplasty	-6564
▁section	-6565
▁discussions	-6566
ovag	-6567
▁radiograp	-6568
▁foods	-6569
▁gynecology	-6570
ationship	-6571
▁yet	-6572
▁cardioversion	-6573
▁WE	-6574
▁Based	-6575
▁trazodone	-6576
▁importance	-6577
-1.0	-6578
-30	-6579
▁cann	-6580
udomonas	-6581
larged	-6582
▁acutely	-6583
▁excision	-6584
▁grafting	-6585
▁responsive	-6586
-18	-6587
▁TTP	-6588
▁soap	-6589
▁Overnight	-6590
▁Amiodarone	-6591
▁prefer	-6592
▁valsartan	-6593
▁child	-6594
Anxiety	-6595
▁missed	-6596
▁swallowing	-6597
▁HbA	-6598
▁stopping	-6599
▁methotrexate	-6600
ERAL	-6601
▁-___	-6602
aphenous	-6603
▁Dementia	-6604
app	-6605
erritin	-6606
arp	-6607
▁narrowed	-6608
▁suspicious	-6609
akes	-6610
▁suspect	-6611
HLD	-6612
bili	-6613
WP	-6614
▁Sulfate	-6615
be	-6616
mor	-6617
▁exacerbated	-6618
▁Dear	-6619
▁fiber	-6620
▁tric	-6621
ungal	-6622
long	-6623
▁Small	-6624
▁awake	-6625
▁mostly	-6626
uinal	-6627
riptyline	-6628
▁nifedipine	-6629
xin	-6630
▁PS	-6631
▁RLL	-6632
▁Found	-6633
▁rectum	-6634
▁global	-6635
▁basal	-6636
▁>100	-6637
▁toxicity	-6638
▁hemolysis	-6639
▁tob	-6640
▁stairs	-6641
oarthritis	-6642
onix	-6643
▁conservative	-6644
ached	-6645
▁BS	-6646
▁ten	-6647
ances	-6648
▁bran	-6649
▁flexion	-6650
▁humalog	-6651
▁platelet	-6652
▁ess	-6653
▁community	-6654
tail	-6655
▁seros	-6656
The	-6657
▁IDDM	-6658
▁nicotine	-6659
▁newly	-6660
▁reflux	-6661
▁hematemesis	-6662
▁difficulties	-6663
▁acquired	-6664
▁attempts	-6665
cholester	-6666
▁2.0	-6667
otrop	-6668
▁hemorrhoids	-6669
▁middle	-6670
▁forearm	-6671
▁Troponin	-6672
▁rise	-6673
STABLE	-6674
umab	-6675
▁isol	-6676
▁wear	-6677
▁uterine	-6678
▁Frequency	-6679
▁hemodynamic	-6680
▁cytology	-6681
▁organism	-6682
▁ND	-6683
▁Potassium	-6684
▁decreasing	-6685
▁herself	-6686
▁definitive	-6687
▁steri	-6688
▁32	-6689
▁SR	-6690
▁splenic	-6691
▁contributed	-6692
▁explicit	-6693
▁depletion	-6694
▁Under	-6695
urning	-6696
-0.0	-6697
▁noticed	-6698
please	-6699
▁fentanyl	-6700
▁swe	-6701
ocrin	-6702
omal	-6703
ideo	-6704
auze	-6705
▁tabs	-6706
▁Ben	-6707
edoch	-6708
▁extract	-6709
ards	-6710
▁SBPs	-6711
▁metronidazole	-6712
▁smear	-6713
LY	-6714
▁commands	-6715
-<	-6716
HA	-6717
▁burden	-6718
▁myeloma	-6719
▁arteries	-6720
walker	-6721
ontrolled	-6722
▁inguinal	-6723
▁adherent	-6724
▁Dysphagia	-6725
irus	-6726
▁Clinic	-6727
▁DD	-6728
▁***	-6729
TIENT	-6730
▁secretions	-6731
▁PFTs	-6732
▁lipid	-6733
▁become	-6734
▁pulled	-6735
If	-6736
▁FFP	-6737
▁dors	-6738
olemia	-6739
▁valu	-6740
▁aspect	-6741
▁reduce	-6742
▁minim	-6743
ptal	-6744
▁Flo	-6745
▁sample	-6746
▁therapist	-6747
▁esophagitis	-6748
▁96	-6749
itant	-6750
▁look	-6751
▁Chan	-6752
▁sitting	-6753
▁Enoxaparin	-6754
itux	-6755
ondition	-6756
▁regularly	-6757
▁ec	-6758
epine	-6759
▁exploratory	-6760
▁PET	-6761
amotidine	-6762
▁Seroquel	-6763
ware	-6764
odin	-6765
▁rig	-6766
▁distension	-6767
▁hypert	-6768
CE	-6769
▁mil	-6770
▁Clon	-6771
▁Needs	-6772
▁chlor	-6773
zine	-6774
▁SQ	-6775
▁convers	-6776
▁hallucinations	-6777
▁shortly	-6778
▁multivitamin	-6779
ylase	-6780
▁pull	-6781
▁resulted	-6782
ILT	-6783
▁DP	-6784
▁nephrology	-6785
▁himself	-6786
▁dro	-6787
▁ventric	-6788
▁TAVR	-6789
▁meropenem	-6790
▁enoxaparin	-6791
zolid	-6792
▁seek	-6793
▁nutritional	-6794
▁acet	-6795
▁mediastinal	-6796
EEK	-6797
daughter	-6798
▁persistently	-6799
▁feeding	-6800
▁dressings	-6801
EST	-6802
▁Occ	-6803
▁values	-6804
▁Despite	-6805
▁Communication	-6806
▁transfered	-6807
cholesterolemia	-6808
-3.6	-6809
▁Can	-6810
#1,	-6811
#2.	-6812
▁Department	-6813
▁must	-6814
▁Spe	-6815
▁Sup	-6816
▁hop	-6817
▁suffer	-6818
▁auscultation	-6819
▁Father	-6820
▁squ	-6821
▁leads	-6822
.5.	-6823
OTH	-6824
▁Qu	-6825
enchym	-6826
oration	-6827
Re	-6828
most	-6829
▁PULM	-6830
▁lysis	-6831
▁advice	-6832
▁measuring	-6833
▁five	-6834
▁gave	-6835
pos	-6836
▁Sulf	-6837
▁fluticasone	-6838
oprost	-6839
▁investig	-6840
▁cerebellar	-6841
▁opacities	-6842
▁Unasyn	-6843
▁solids	-6844
▁inhibitor	-6845
▁SILT	-6846
▁extreme	-6847
Follow	-6848
umerous	-6849
▁device	-6850
▁ICA	-6851
▁wave	-6852
At	-6853
UL	-6854
▁Ile	-6855
▁appt	-6856
▁uncontrolled	-6857
PC	-6858
▁consistently	-6859
kes	-6860
▁Throughout	-6861
▁tid	-6862
▁hemoptysis	-6863
she	-6864
▁mobilization	-6865
▁triggered	-6866
▁Immediately	-6867
▁warning	-6868
▁DS	-6869
▁fluct	-6870
▁Intake	-6871
▁Narcotic	-6872
▁autoimmune	-6873
▁shunt	-6874
▁Suspect	-6875
▁Fin	-6876
▁feet	-6877
▁little	-6878
lithiasis	-6879
▁Dyspnea	-6880
▁metastases	-6881
ivent	-6882
▁clonidine	-6883
▁diverticulosis	-6884
▁oxyc	-6885
▁Syringe	-6886
▁exams	-6887
▁IgG	-6888
which	-6889
▁membran	-6890
▁brother	-6891
▁Az	-6892
▁films	-6893
▁Kidney	-6894
▁eyes	-6895
▁popliteal	-6896
▁anticoagulated	-6897
▁friend	-6898
▁biopsies	-6899
▁effective	-6900
▁fraction	-6901
▁attending	-6902
-27.	-6903
▁tro	-6904
alexin	-6905
osinophil	-6906
▁faxed	-6907
75	-6908
icks	-6909
▁BE	-6910
-4.5	-6911
UT	-6912
▁aphasia	-6913
▁myocardial	-6914
PEP	-6915
▁Smoking	-6916
▁stit	-6917
▁tunnel	-6918
NF	-6919
▁RV	-6920
COPD	-6921
▁sleeping	-6922
aryngeal	-6923
yal	-6924
▁minimally	-6925
▁Subsequ	-6926
▁tartrate	-6927
oun	-6928
atal	-6929
▁overdose	-6930
▁superior	-6931
▁MMM	-6932
▁Endocrine	-6933
▁Ultimately	-6934
▁filter	-6935
▁Increased	-6936
▁LABS	-6937
▁Lab	-6938
▁Medicine	-6939
1/	-6940
onsider	-6941
NA	-6942
ongue	-6943
throid	-6944
▁stimul	-6945
-4.4	-6946
▁Ran	-6947
▁Seizure	-6948
▁veget	-6949
▁refill	-6950
▁titrate	-6951
▁sex	-6952
▁often	-6953
▁methyl	-6954
▁weights	-6955
▁Oncology	-6956
▁markedly	-6957
icodin	-6958
▁tibia	-6959
▁enlarged	-6960
▁important	-6961
▁docusate	-6962
umerus	-6963
▁doppler	-6964
▁features	-6965
▁ANTI	-6966
▁antibody	-6967
▁physicians	-6968
▁recieved	-6969
▁HAART	-6970
▁Expired	-6971
▁sensory	-6972
ison	-6973
▁SVT	-6974
els	-6975
▁eas	-6976
▁Aortic	-6977
UND	-6978
ulary	-6979
distended	-6980
▁wheezes	-6981
/0.	-6982
▁Short	-6983
▁Neurolog	-6984
▁evac	-6985
▁colorectal	-6986
▁swab	-6987
▁pills	-6988
▁WEIGHT	-6989
olithiasis	-6990
▁rechecked	-6991
▁hypovolemic	-6992
▁incisional	-6993
-0.4	-6994
phthalm	-6995
▁visualized	-6996
welling	-6997
▁VL	-6998
atter	-6999
▁believed	-7000
▁gauze	-7001
▁nadolol	-7002
▁anastomosis	-7003
▁TI	-7004
▁wis	-7005
▁PD	-7006
▁round	-7007
ovagal	-7008
▁opiates	-7009
rEF	-7010
▁sarc	-7011
▁strong	-7012
▁elected	-7013
▁lig	-7014
grade	-7015
▁Speech	-7016
▁First	-7017
▁field	-7018
CL	-7019
▁craniotomy	-7020
▁LOC	-7021
▁bott	-7022
▁qHS	-7023
▁hardware	-7024
▁Trauma	-7025
ju	-7026
care	-7027
▁colchicine	-7028
▁consciousness	-7029
▁LLL	-7030
▁parietal	-7031
▁gang	-7032
▁Hypox	-7033
▁nyst	-7034
▁ip	-7035
-0.3	-7036
▁dup	-7037
▁Prov	-7038
POCH	-7039
▁pylori	-7040
picillin	-7041
▁inhalers	-7042
▁thoracentesis	-7043
ventional	-7044
VIT	-7045
mon	-7046
▁Tr	-7047
onoscopy	-7048
▁ROM	-7049
▁CE	-7050
▁cast	-7051
intment	-7052
▁Day	-7053
▁rifaximin	-7054
▁guided	-7055
▁thoughts	-7056
cell	-7057
▁aorta	-7058
rach	-7059
▁bo	-7060
OUND	-7061
▁presence	-7062
▁Diltiazem	-7063
bur	-7064
▁CULT	-7065
▁hepatology	-7066
Al	-7067
EDs	-7068
iform	-7069
▁adhe	-7070
▁iso	-7071
▁duoden	-7072
▁adjustment	-7073
▁incidentally	-7074
itory	-7075
anxiety	-7076
▁sutures	-7077
ibular	-7078
▁pleuritic	-7079
ds	-7080
▁melan	-7081
ADH	-7082
▁Subcutaneous	-7083
▁SE	-7084
▁strep	-7085
ih	-7086
▁memory	-7087
▁sterile	-7088
▁cut	-7089
▁PUFF	-7090
▁Patch	-7091
▁Gastro	-7092
opped	-7093
▁Transition	-7094
▁irrigation	-7095
3)	-7096
imab	-7097
TENSION	-7098
sibly	-7099
▁Inhaler	-7100
ifiable	-7101
▁largely	-7102
▁exposure	-7103
▁anxious	-7104
▁fluctu	-7105
▁decompensation	-7106
▁particularly	-7107
▁Transaminitis	-7108
upogen	-7109
ASA	-7110
▁AVM	-7111
▁men	-7112
▁humerus	-7113
▁experiencing	-7114
▁Unfortunately	-7115
▁dc	-7116
lopid	-7117
ardiac	-7118
ACE	-7119
▁Extremities	-7120
▁LI	-7121
UK	-7122
▁pursued	-7123
▁rheumat	-7124
▁typical	-7125
▁Lorazepam	-7126
▁lap	-7127
▁bicarb	-7128
▁sk	-7129
▁UCx	-7130
rays	-7131
▁Syst	-7132
▁Could	-7133
▁transverse	-7134
▁nephrolithiasis	-7135
▁UC	-7136
Final	-7137
retion	-7138
▁34	-7139
▁0.9	-7140
lopidogrel	-7141
▁17.	-7142
▁HEME	-7143
▁extending	-7144
▁distribution	-7145
heal	-7146
BBB	-7147
▁pract	-7148
▁migraines	-7149
▁material	-7150
▁applied	-7151
▁Cultures	-7152
▁strongly	-7153
▁#1	-7154
▁fasc	-7155
▁retro	-7156
continue	-7157
▁clearance	-7158
▁irregular	-7159
ophren	-7160
▁tomor	-7161
▁trigger	-7162
CHCT	-7163
▁tomorrow	-7164
▁MVI	-7165
idectomy	-7166
enty	-7167
▁Thought	-7168
▁neutropenic	-7169
zapine	-7170
▁fluoxetine	-7171
▁POs	-7172
Trans	-7173
▁preparation	-7174
YN	-7175
5%.	-7176
▁CULTURE	-7177
uted	-7178
▁NCHCT	-7179
▁becom	-7180
▁late	-7181
▁relap	-7182
iogram	-7183
odrine	-7184
▁murmurs	-7185
▁vacc	-7186
▁flora	-7187
▁diazepam	-7188
Fever	-7189
zia	-7190
▁plenty	-7191
▁remote	-7192
▁Spironolactone	-7193
gra	-7194
Colace	-7195
▁recover	-7196
5-	-7197
▁Leuk	-7198
cef	-7199
osc	-7200
8)	-7201
▁THE	-7202
azosin	-7203
▁paran	-7204
▁Lipase	-7205
▁protection	-7206
-36.	-7207
▁anicteric	-7208
calcemia	-7209
man	-7210
▁Afebrile	-7211
▁numerous	-7212
▁strenuous	-7213
Code	-7214
ytoin	-7215
lateral	-7216
rapubic	-7217
▁lith	-7218
duc	-7219
▁Core	-7220
iplatelet	-7221
▁HPI	-7222
▁distally	-7223
aze	-7224
ants	-7225
aves	-7226
▁GNR	-7227
▁88	-7228
arel	-7229
▁recon	-7230
▁narrowing	-7231
▁metastasis	-7232
▁Tamsulosin	-7233
iot	-7234
▁severity	-7235
▁Start	-7236
let	-7237
ense	-7238
▁phos	-7239
▁seem	-7240
▁development	-7241
▁16.	-7242
▁Remained	-7243
▁decondition	-7244
▁sensitivities	-7245
uprop	-7246
▁angiography	-7247
etia	-7248
-139	-7249
arelto	-7250
▁person	-7251
perative	-7252
▁mesenteric	-7253
▁Compl	-7254
▁valvular	-7255
▁orthopedics	-7256
edocholithiasis	-7257
▁LO	-7258
▁nondistended	-7259
▁29	-7260
alping	-7261
estinal	-7262
▁liters	-7263
▁saphenous	-7264
bital	-7265
▁refus	-7266
▁fund	-7267
▁SIADH	-7268
substance	-7269
▁lethargy	-7270
opulmonary	-7271
pn	-7272
-0.2	-7273
▁video	-7274
▁98%	-7275
illance	-7276
▁specific	-7277
eries	-7278
▁tobacco	-7279
▁nephrostomy	-7280
▁Mic	-7281
hezia	-7282
▁oxycontin	-7283
GFR	-7284
thy	-7285
syn	-7286
▁tablets	-7287
ronically	-7288
▁unresponsive	-7289
east	-7290
AGU	-7291
lofen	-7292
thral	-7293
▁vasovagal	-7294
etil	-7295
▁unw	-7296
focal	-7297
▁droop	-7298
▁regional	-7299
________________	-7300
scop	-7301
▁LEUK	-7302
▁aspir	-7303
ouch	-7304
▁Cef	-7305
py	-7306
▁1.9	-7307
anded	-7308
▁CORONA	-7309
▁Orthostatic	-7310
mbil	-7311
▁behavioral	-7312
▁wish	-7313
▁Inf	-7314
enem	-7315
▁sets	-7316
▁rivar	-7317
nT	-7318
ae	-7319
▁epilepsy	-7320
▁reflex	-7321
▁adhesions	-7322
▁EKGs	-7323
▁discontinuation	-7324
april	-7325
▁originally	-7326
▁pulmonology	-7327
yalgia	-7328
▁extubation	-7329
▁correl	-7330
▁falling	-7331
lose	-7332
▁Followed	-7333
▁malnutrition	-7334
▁gentle	-7335
▁dislocation	-7336
▁suppression	-7337
VER	-7338
leb	-7339
odiaz	-7340
iri	-7341
pted	-7342
▁Trop	-7343
▁musculoskeletal	-7344
11	-7345
xia	-7346
▁LDH	-7347
▁pig	-7348
▁spirometer	-7349
▁WWP	-7350
▁glasses	-7351
aint	-7352
▁HISS	-7353
▁Chole	-7354
izophren	-7355
▁salping	-7356
▁CAL	-7357
▁Albumin	-7358
▁yellow	-7359
▁FA	-7360
▁Lack	-7361
▁session	-7362
▁capt	-7363
▁tab	-7364
▁mesh	-7365
▁Sinus	-7366
▁coughing	-7367
▁0.6	-7368
blood	-7369
oresis	-7370
enchymal	-7371
▁Gu	-7372
▁ok	-7373
▁pen	-7374
▁script	-7375
▁Mellitus	-7376
NCY	-7377
▁Time	-7378
▁anion	-7379
lud	-7380
▁Ileus	-7381
utches	-7382
▁multifocal	-7383
eliac	-7384
▁polyp	-7385
otropic	-7386
▁thorac	-7387
anguinous	-7388
▁rub	-7389
▁special	-7390
▁washout	-7391
▁EBV	-7392
▁toradol	-7393
▁Transplant	-7394
▁steady	-7395
▁Citalopram	-7396
▁101	-7397
▁release	-7398
inner	-7399
▁class	-7400
▁allergies	-7401
▁Intravenous	-7402
-19	-7403
▁4,	-7404
▁WI	-7405
▁visiting	-7406
izophrenia	-7407
▁spoke	-7408
▁lying	-7409
▁Underwent	-7410
▁laboratory	-7411
▁pacer	-7412
▁delayed	-7413
▁dysarth	-7414
▁2:	-7415
etam	-7416
▁WOUND	-7417
pectomy	-7418
▁WB	-7419
▁herniation	-7420
ymp	-7421
▁Imdur	-7422
ectable	-7423
▁stran	-7424
Th	-7425
▁AAA	-7426
▁ACTI	-7427
▁lamine	-7428
▁normally	-7429
natremia	-7430
▁tx	-7431
▁0.8	-7432
▁antig	-7433
▁wishes	-7434
Is	-7435
axine	-7436
▁agreeable	-7437
▁surgeries	-7438
28	-7439
icient	-7440
▁symptomatically	-7441
umedrol	-7442
RT	-7443
port	-7444
▁Hal	-7445
▁Sens	-7446
▁dizzy	-7447
▁weekend	-7448
Type	-7449
king	-7450
outine	-7451
inf	-7452
▁sweats	-7453
RS	-7454
▁Keep	-7455
antly	-7456
▁intoxication	-7457
▁Gly	-7458
▁cavity	-7459
▁prompt	-7460
RIES	-7461
▁Hematoc	-7462
LI	-7463
ibe	-7464
ceased	-7465
▁subcl	-7466
▁Carvedilol	-7467
laf	-7468
▁emboli	-7469
▁persis	-7470
▁situation	-7471
ways	-7472
▁Interventional	-7473
▁Man	-7474
▁infarcts	-7475
▁AML	-7476
▁PRI	-7477
▁recur	-7478
roidectomy	-7479
▁occipital	-7480
12,	-7481
strips	-7482
▁hemodynamics	-7483
▁helped	-7484
▁filling	-7485
▁mention	-7486
given	-7487
▁Thoracic	-7488
▁vessels	-7489
nar	-7490
lexa	-7491
iceal	-7492
▁Dispo	-7493
▁colonic	-7494
LAD	-7495
NONE	-7496
▁Vit	-7497
▁sharp	-7498
▁sedated	-7499
▁Breast	-7500
ryth	-7501
▁ect	-7502
▁enl	-7503
▁qday	-7504
▁myal	-7505
▁stitches	-7506
▁excessive	-7507
▁Warm	-7508
▁stasis	-7509
▁Syncope	-7510
▁far	-7511
CC	-7512
YM	-7513
▁1500	-7514
DS	-7515
lafaxine	-7516
▁comprom	-7517
▁pad	-7518
noid	-7519
ephalexin	-7520
▁unasyn	-7521
IB	-7522
▁bright	-7523
▁valium	-7524
▁Routine	-7525
THM	-7526
-138	-7527
▁says	-7528
▁subt	-7529
▁demonstrating	-7530
▁junction	-7531
▁empt	-7532
▁plate	-7533
Operative	-7534
▁Cefepime	-7535
▁develops	-7536
▁interrog	-7537
▁nephrectomy	-7538
▁uterus	-7539
▁cramping	-7540
ifen	-7541
unch	-7542
▁loaded	-7543
asal	-7544
▁ped	-7545
▁Stap	-7546
▁Negative	-7547
▁UOP	-7548
▁Evalu	-7549
akote	-7550
lampsia	-7551
▁ferritin	-7552
HYTHM	-7553
orbid	-7554
▁vanco	-7555
▁Tacrolimus	-7556
roplasty	-7557
ashes	-7558
▁lost	-7559
▁topical	-7560
▁fos	-7561
▁prelim	-7562
4-	-7563
▁Tachycardia	-7564
▁IVIG	-7565
▁mam	-7566
uclear	-7567
▁index	-7568
colace	-7569
▁describ	-7570
WB	-7571
▁salt	-7572
▁attack	-7573
lic	-7574
▁Reports	-7575
▁persisted	-7576
▁0.25	-7577
▁Ultrasound	-7578
▁(3)	-7579
▁dietary	-7580
zil	-7581
▁dx	-7582
▁SAH	-7583
▁tried	-7584
▁axillary	-7585
▁Delay	-7586
▁couple	-7587
azone	-7588
ser	-7589
▁generally	-7590
▁stabilization	-7591
ises	-7592
▁coming	-7593
▁membranes	-7594
oric	-7595
ospasm	-7596
ilaudid	-7597
▁polyps	-7598
▁anginal	-7599
ludge	-7600
▁stri	-7601
certain	-7602
Mon	-7603
▁4000	-7604
▁Bowel	-7605
▁address	-7606
▁rivaroxaban	-7607
▁suprapubic	-7608
▁pressor	-7609
▁isosorbide	-7610
asma	-7611
▁actually	-7612
▁dehydrated	-7613
▁vasopressor	-7614
▁CHA	-7615
adron	-7616
epsis	-7617
▁pericarditis	-7618
▁Sl	-7619
contrast	-7620
▁ascending	-7621
▁IVFs	-7622
▁agent	-7623
▁trace	-7624
pective	-7625
Trop	-7626
VITY	-7627
ioma	-7628
▁prur	-7629
▁acting	-7630
▁seroquel	-7631
▁dox	-7632
▁warran	-7633
EP	-7634
-1.1	-7635
▁SICU	-7636
▁donor	-7637
▁cervix	-7638
onitrate	-7639
▁Unknown	-7640
▁Troponins	-7641
▁Peripheral	-7642
▁4)	-7643
▁SP	-7644
▁Statin	-7645
▁========	-7646
het	-7647
▁Daughter	-7648
▁awaiting	-7649
▁HCAP	-7650
stitial	-7651
ACTER	-7652
▁pneumoboots	-7653
ars	-7654
▁heel	-7655
▁nebulizer	-7656
▁towards	-7657
▁crutches	-7658
▁attention	-7659
▁PPD	-7660
etic	-7661
upus	-7662
▁witnessed	-7663
▁rejection	-7664
fate	-7665
haps	-7666
▁nitroglycerin	-7667
▁resum	-7668
▁ecchym	-7669
▁Bisacodyl	-7670
▁Carbonate	-7671
▁signed	-7672
▁occasion	-7673
▁Treatments	-7674
lec	-7675
▁Mal	-7676
▁clearly	-7677
CS	-7678
-20	-7679
▁Tor	-7680
genic	-7681
▁circum	-7682
▁benzodiaz	-7683
▁degenerative	-7684
rown	-7685
▁Ortho	-7686
▁dual	-7687
YMPH	-7688
▁LYMPH	-7689
▁occluded	-7690
▁ABDOM	-7691
-89	-7692
enable	-7693
▁BiPAP	-7694
ervical	-7695
▁iv	-7696
oemb	-7697
drain	-7698
▁Thus	-7699
▁ventral	-7700
▁ANC	-7701
▁dCHF	-7702
▁developing	-7703
▁erythematous	-7704
▁HBV	-7705
-88	-7706
-92	-7707
▁HFrEF	-7708
▁pseudo	-7709
▁returning	-7710
▁Comp	-7711
▁rose	-7712
▁unsu	-7713
▁ACTIVITY	-7714
itary	-7715
-91	-7716
zhe	-7717
▁JVP	-7718
▁umbil	-7719
oh	-7720
▁PERRL	-7721
▁Insomnia	-7722
AG	-7723
▁TR	-7724
▁verap	-7725
▁sessions	-7726
GIB	-7727
friend	-7728
vision	-7729
▁chronically	-7730
▁occur	-7731
ranolol	-7732
▁Headache	-7733
ARING	-7734
oxone	-7735
▁desire	-7736
iventricular	-7737
▁Derm	-7738
buride	-7739
▁ather	-7740
▁mastectomy	-7741
▁Toler	-7742
-103	-7743
▁LLQ	-7744
▁balance	-7745
▁moist	-7746
AF	-7747
/50	-7748
▁toes	-7749
trans	-7750
reader	-7751
COAGU	-7752
▁fungal	-7753
▁evacuation	-7754
▁*1	-7755
chills	-7756
▁congestive	-7757
▁imdur	-7758
▁PPx	-7759
▁proper	-7760
▁sternal	-7761
▁rheumatology	-7762
icult	-7763
▁groups	-7764
like	-7765
▁Lyme	-7766
▁cTrop	-7767
▁Ranitidine	-7768
▁heme	-7769
lastic	-7770
loxetine	-7771
▁hydroxy	-7772
▁Appl	-7773
▁find	-7774
▁disco	-7775
▁cystic	-7776
-104	-7777
▁cTropnT	-7778
▁:	-7779
▁cannula	-7780
▁Klebsiella	-7781
3%	-7782
amer	-7783
thalidone	-7784
▁BLE	-7785
▁prolong	-7786
▁Tri	-7787
aying	-7788
▁Both	-7789
▁organisms	-7790
iating	-7791
);	-7792
orse	-7793
▁renally	-7794
▁necrosis	-7795
▁hypoxemia	-7796
▁estGFR	-7797
aptomycin	-7798
▁dysarthria	-7799
▁SSI	-7800
WEEK	-7801
init	-7802
▁170	-7803
▁99%	-7804
odies	-7805
▁tone	-7806
▁supply	-7807
OCY	-7808
liqu	-7809
isolone	-7810
▁fibroids	-7811
from	-7812
▁Temp	-7813
▁lines	-7814
▁Glargine	-7815
▁Lymphs	-7816
#2,	-7817
▁Meds	-7818
▁embolic	-7819
▁overlying	-7820
▁cholelithiasis	-7821
▁PCN	-7822
▁Meas	-7823
eriatric	-7824
▁PRIMARY	-7825
▁pigtail	-7826
▁TACE	-7827
▁longstanding	-7828
▁advair	-7829
com	-7830
Using	-7831
▁sore	-7832
▁endocrin	-7833
▁burning	-7834
WF	-7835
▁Up	-7836
▁Ket	-7837
▁Cellulitis	-7838
hypertensives	-7839
ralfate	-7840
Continued	-7841
▁EY	-7842
herence	-7843
▁avoided	-7844
45	-7845
inated	-7846
▁soak	-7847
▁Serial	-7848
▁Protein	-7849
▁verapamil	-7850
▁AVSS	-7851
RGENCY	-7852
▁apply	-7853
ains	-7854
▁Med	-7855
▁amenable	-7856
olo	-7857
▁brach	-7858
2-	-7859
rigine	-7860
▁appreciated	-7861
▁Leg	-7862
▁serious	-7863
COAGULATION	-7864
▁GYN	-7865
pension	-7866
▁compliant	-7867
rednisolone	-7868
▁elevations	-7869
16	-7870
▁PIV	-7871
▁Meth	-7872
▁minor	-7873
▁nodes	-7874
phthalmology	-7875
cour	-7876
▁quality	-7877
lbs	-7878
▁>10	-7879
amictal	-7880
▁interested	-7881
▁Biop	-7882
▁wrap	-7883
▁paras	-7884
cephalus	-7885
▁miralax	-7886
▁finasteride	-7887
▁hypokalemia	-7888
▁occupational	-7889
▁Palliative	-7890
acity	-7891
▁GENERAL	-7892
▁Sw	-7893
hesias	-7894
luding	-7895
pers	-7896
▁tongue	-7897
Hypothyroidism	-7898
-26.	-7899
4%	-7900
▁epilept	-7901
▁JVD	-7902
iveness	-7903
UTI	-7904
ALS	-7905
ony	-7906
▁ml	-7907
iatal	-7908
Dilaudid	-7909
▁mirtazapine	-7910
▁formal	-7911
▁fingerst	-7912
▁predomin	-7913
▁stressors	-7914
▁fav	-7915
apenem	-7916
▁ejection	-7917
OUR	-7918
DRO	-7919
change	-7920
▁ranged	-7921
▁worsen	-7922
▁changing	-7923
ask	-7924
▁Later	-7925
▁Psychiatric	-7926
▁arms	-7927
▁Advair	-7928
▁dental	-7929
▁Ang	-7930
▁myalgias	-7931
ENDING	-7932
▁represents	-7933
▁dang	-7934
▁raised	-7935
▁Diastolic	-7936
▁tremor	-7937
▁phosph	-7938
▁PATIENT	-7939
itri	-7940
arter	-7941
▁tested	-7942
▁difficile	-7943
▁surveillance	-7944
▁WITH	-7945
▁extremely	-7946
ftaz	-7947
rokes	-7948
▁pron	-7949
▁infiltr	-7950
▁personal	-7951
▁extraction	-7952
▁BMs	-7953
▁neur	-7954
smoker	-7955
▁rashes	-7956
-102	-7957
examethasone	-7958
lobul	-7959
FO	-7960
▁reconstruction	-7961
yte	-7962
omplete	-7963
▁rupture	-7964
phth	-7965
MERGENCY	-7966
room	-7967
▁PUMP	-7968
▁advanc	-7969
ethyl	-7970
▁Chol	-7971
▁Present	-7972
▁banding	-7973
/9	-7974
bc	-7975
▁plus	-7976
▁burst	-7977
▁Pancreatic	-7978
-87	-7979
▁hypod	-7980
▁immob	-7981
structing	-7982
▁Measures	-7983
▁revealing	-7984
aced	-7985
bleed	-7986
ares	-7987
▁Cong	-7988
▁branch	-7989
▁Pending	-7990
▁Radiology	-7991
▁eosinophil	-7992
▁MRA	-7993
▁Labet	-7994
yle	-7995
▁3.5	-7996
▁wed	-7997
right	-7998
▁od	-7999
imated	-8000
▁Ferrous	-8001
arach	-8002
Hg	-8003
▁probably	-8004
propri	-8005
▁allergic	-8006
▁true	-8007
▁unste	-8008
▁RPR	-8009
▁fast	-8010
isting	-8011
▁sludge	-8012
▁production	-8013
peridone	-8014
▁rob	-8015
▁clav	-8016
OU	-8017
itate	-8018
urgeon	-8019
***	-8020
▁Possibly	-8021
▁adjacent	-8022
arachnoid	-8023
▁remission	-8024
▁collections	-8025
▁conservatively	-8026
rank	-8027
▁Anti	-8028
ogastric	-8029
physician	-8030
▁modifiable	-8031
velamer	-8032
peritoneal	-8033
▁DE	-8034
yloid	-8035
yprex	-8036
itriol	-8037
meterol	-8038
▁art	-8039
onomic	-8040
ullary	-8041
▁Ensure	-8042
▁Culture	-8043
▁orthopnea	-8044
▁ring	-8045
▁subst	-8046
▁melanoma	-8047
▁ipratropium	-8048
▁laminectomy	-8049
eps	-8050
▁50%	-8051
▁TLS	-8052
▁bronchitis	-8053
▁Relationship	-8054
sive	-8055
▁prim	-8056
▁establish	-8057
▁gradient	-8058
▁Total	-8059
▁ectop	-8060
▁scans	-8061
▁packing	-8062
▁breakfast	-8063
symptomatic	-8064
▁PPX	-8065
olytic	-8066
▁paper	-8067
HCT	-8068
▁sling	-8069
▁Reported	-8070
hage	-8071
▁MSK	-8072
▁partially	-8073
DU	-8074
▁strokes	-8075
ta	-8076
-2.0	-8077
yprexa	-8078
▁intoler	-8079
▁periods	-8080
ng	-8081
▁cyan	-8082
▁pancytopenia	-8083
ALT	-8084
ipated	-8085
▁Es	-8086
▁os	-8087
aginal	-8088
▁implant	-8089
ROP	-8090
-16.	-8091
▁#*40	-8092
aclofen	-8093
INAL	-8094
▁*****	-8095
vid	-8096
▁1:1	-8097
▁pure	-8098
▁FOLLOW	-8099
Na	-8100
dia	-8101
▁las	-8102
urb	-8103
ason	-8104
onide	-8105
▁voice	-8106
▁Stopped	-8107
▁urinating	-8108
▁serosanguinous	-8109
estive	-8110
resented	-8111
▁endorses	-8112
▁dermatology	-8113
cefepime	-8114
eclampsia	-8115
indamycin	-8116
▁considering	-8117
onch	-8118
▁LVH	-8119
▁tran	-8120
▁Ulcer	-8121
imposed	-8122
ethylene	-8123
▁isolated	-8124
▁levaquin	-8125
▁Appears	-8126
▁Sertraline	-8127
▁CORONARIES	-8128
▁essentially	-8129
-141	-8130
chronic	-8131
▁visible	-8132
▁Clopidogrel	-8133
orexia	-8134
▁Rehab	-8135
utional	-8136
▁strips	-8137
▁dependence	-8138
▁unsuccessful	-8139
arget	-8140
▁>1	-8141
▁RN	-8142
▁#1,	-8143
▁deform	-8144
▁BMP	-8145
▁bab	-8146
▁morb	-8147
oscler	-8148
▁#2	-8149
amous	-8150
▁Orthopaedic	-8151
▁Motrin	-8152
▁structural	-8153
sterol	-8154
▁repro	-8155
▁antigen	-8156
▁corrected	-8157
▁NGTD	-8158
▁exhib	-8159
ales	-8160
home	-8161
▁LCx	-8162
presumed	-8163
ATIVE	-8164
acetam	-8165
ll	-8166
KIN	-8167
FORM	-8168
▁RHYTHM	-8169
▁PAST	-8170
▁harm	-8171
▁inotropic	-8172
▁troub	-8173
▁excell	-8174
ramine	-8175
▁advance	-8176
-3.4	-8177
▁0.3	-8178
acc	-8179
▁bedrest	-8180
▁fixed	-8181
▁cuff	-8182
▁capacity	-8183
▁usually	-8184
▁hab	-8185
▁pus	-8186
hesis	-8187
▁Next	-8188
ocyst	-8189
▁Heal	-8190
▁95%	-8191
▁Three	-8192
▁excellent	-8193
▁BI	-8194
▁NWB	-8195
otide	-8196
▁Bipolar	-8197
▁PHYSICAL	-8198
▁TP	-8199
▁wide	-8200
although	-8201
▁represented	-8202
Inc	-8203
amax	-8204
▁ATN	-8205
▁impairment	-8206
▁Arter	-8207
-105	-8208
▁Mac	-8209
▁highly	-8210
ailed	-8211
▁FICU	-8212
▁members	-8213
▁pneumonitis	-8214
cheduled	-8215
▁endometrial	-8216
-1.9	-8217
iter	-8218
izan	-8219
▁Recurrent	-8220
▁clar	-8221
cephalopathy	-8222
▁yr	-8223
▁space	-8224
▁specialist	-8225
Bas	-8226
▁stranding	-8227
▁afterwards	-8228
▁nons	-8229
▁Hematocrit	-8230
physema	-8231
▁minute	-8232
▁INACTIVE	-8233
▁(10	-8234
▁para	-8235
▁enhancement	-8236
▁lb	-8237
▁critical	-8238
▁ulceration	-8239
▁questionable	-8240
ionate	-8241
▁concurrent	-8242
▁2.1	-8243
▁ingestion	-8244
sod	-8245
▁PROTE	-8246
▁visits	-8247
▁electro	-8248
lammatory	-8249
▁restricted	-8250
/0.4	-8251
▁IVDU	-8252
▁flush	-8253
▁radiating	-8254
Ag	-8255
▁42	-8256
arynx	-8257
▁talk	-8258
icardial	-8259
wife	-8260
itely	-8261
▁Chlor	-8262
▁spiked	-8263
▁ram	-8264
▁spir	-8265
▁option	-8266
ndansetron	-8267
▁carbonate	-8268
▁exertional	-8269
flu	-8270
-150	-8271
▁mar	-8272
aneurysm	-8273
iotropium	-8274
UNG	-8275
▁accident	-8276
▁emergent	-8277
▁ANTICOAGULATION	-8278
▁VAT	-8279
▁sym	-8280
▁methylp	-8281
romyalgia	-8282
▁BACTER	-8283
▁healed	-8284
▁analysis	-8285
▁bariatric	-8286
▁induction	-8287
3-	-8288
Bs	-8289
She	-8290
imes	-8291
ionella	-8292
dx	-8293
▁lives	-8294
▁marginal	-8295
hx	-8296
-50	-8297
▁CLL	-8298
ining	-8299
reotide	-8300
▁Toprol	-8301
▁fibrosis	-8302
▁compromise	-8303
▁hematochezia	-8304
▁Inhalation	-8305
▁pick	-8306
▁Cough	-8307
▁hearing	-8308
orr	-8309
▁TW	-8310
orine	-8311
▁Hg	-8312
ults	-8313
▁ECT	-8314
▁simple	-8315
▁ampicillin	-8316
▁Ondansetron	-8317
▁bicarbonate	-8318
▁aggressively	-8319
▁enterococcus	-8320
jur	-8321
orin	-8322
▁Previously	-8323
▁WBAT	-8324
▁Encour	-8325
▁pseudomonas	-8326
▁RH	-8327
▁NEUR	-8328
▁ductal	-8329
▁discovered	-8330
▁functioning	-8331
etiapine	-8332
▁Altered	-8333
▁Azithromycin	-8334
▁restrictions	-8335
Cl	-8336
New	-8337
▁Nitro	-8338
▁Flomax	-8339
▁expect	-8340
▁understood	-8341
▁nephrologist	-8342
ipple	-8343
▁Brain	-8344
48	-8345
▁turn	-8346
▁BEARING	-8347
▁mentioned	-8348
▁-->	-8349
▁CCY	-8350
iliary	-8351
rocaps	-8352
lanzapine	-8353
-325	-8354
▁bradycardic	-8355
Chest	-8356
uspid	-8357
▁happ	-8358
sodiol	-8359
arv	-8360
▁qAM	-8361
hydration	-8362
esophageal	-8363
olam	-8364
phosph	-8365
▁pleasure	-8366
▁indicating	-8367
▁interstitial	-8368
▁osteoporosis	-8369
▁linezolid	-8370
▁NIT	-8371
▁analgesia	-8372
▁indwelling	-8373
▁wheel	-8374
▁tolerance	-8375
▁contribution	-8376
omark	-8377
iracetam	-8378
▁midodrine	-8379
▁depressions	-8380
phen	-8381
▁hum	-8382
▁fair	-8383
▁travel	-8384
atio	-8385
▁Final	-8386
▁synthroid	-8387
dL	-8388
DIA	-8389
OSU	-8390
isis	-8391
▁AHA	-8392
▁uncertain	-8393
▁DL	-8394
▁labile	-8395
ctreotide	-8396
▁Levaquin	-8397
MM	-8398
▁conversion	-8399
▁returns	-8400
▁WH	-8401
▁GPC	-8402
▁pin	-8403
▁Hold	-8404
▁tacro	-8405
▁coping	-8406
▁perhaps	-8407
0.01	-8408
▁gal	-8409
▁PENDING	-8410
▁Lopressor	-8411
▁hypoglycemic	-8412
▁superimposed	-8413
ana	-8414
chair	-8415
▁SKIN	-8416
▁hydromorphone	-8417
▁activate	-8418
▁Transient	-8419
▁prem	-8420
▁NEUROSU	-8421
▁ointment	-8422
pr	-8423
▁LT	-8424
▁disor	-8425
olateral	-8426
▁retained	-8427
-4.6	-8428
▁duplex	-8429
▁colostomy	-8430
▁Du	-8431
▁97%	-8432
▁Does	-8433
▁18,	-8434
▁EUS	-8435
Clear	-8436
ophed	-8437
▁Incidental	-8438
neic	-8439
▁ALK	-8440
ollen	-8441
appear	-8442
▁somet	-8443
▁NEUROSURGERY	-8444
BP	-8445
▁coil	-8446
vas	-8447
aprox	-8448
▁whole	-8449
sternal	-8450
▁morbid	-8451
▁recall	-8452
▁Prot	-8453
▁diaphoresis	-8454
▁44	-8455
▁cardiogenic	-8456
▁ADL	-8457
▁CEA	-8458
▁Path	-8459
▁reflect	-8460
amotrigine	-8461
▁gallstone	-8462
▁40%	-8463
▁waves	-8464
▁PROTEIN	-8465
▁preterm	-8466
▁supervision	-8467
▁Bed	-8468
▁Risk	-8469
▁Motor	-8470
lot	-8471
▁99.	-8472
aryng	-8473
▁wedge	-8474
▁buprop	-8475
▁anat	-8476
▁regards	-8477
▁Hyperkalemia	-8478
▁rot	-8479
▁cooperative	-8480
▁always	-8481
▁lat	-8482
▁portion	-8483
▁39	-8484
EFT	-8485
ieu	-8486
▁FOL	-8487
onchi	-8488
atives	-8489
▁Systolic	-8490
▁Po	-8491
-37.	-8492
▁IBS	-8493
▁nasogastric	-8494
-160	-8495
▁osm	-8496
▁speak	-8497
▁thumb	-8498
▁Catheter	-8499
▁plaqu	-8500
▁undet	-8501
▁Rhythm	-8502
▁warranted	-8503
ponade	-8504
▁Haldol	-8505
▁markers	-8506
-86	-8507
IRUB	-8508
▁scop	-8509
▁deconditioning	-8510
obacco	-8511
▁Colonoscopy	-8512
▁lax	-8513
izanidine	-8514
fective	-8515
▁celiac	-8516
▁31	-8517
▁suite	-8518
▁resources	-8519
▁Lactulose	-8520
Res	-8521
efin	-8522
▁PSY	-8523
▁Abscess	-8524
acing	-8525
▁Serum	-8526
aproxen	-8527
▁preced	-8528
▁occasionally	-8529
-40	-8530
▁lif	-8531
▁butt	-8532
▁exchange	-8533
▁excluded	-8534
▁KET	-8535
▁prominent	-8536
Se	-8537
ezing	-8538
▁Enter	-8539
▁stiff	-8540
▁lobectomy	-8541
obstructive	-8542
ictal	-8543
remic	-8544
▁thal	-8545
▁black	-8546
-93	-8547
▁2.2	-8548
▁oroph	-8549
Tylenol	-8550
▁serous	-8551
▁Orthopedics	-8552
nife	-8553
▁Alzhe	-8554
▁maxim	-8555
▁entirely	-8556
iculopathy	-8557
▁App	-8558
▁asa	-8559
-98	-8560
sever	-8561
▁alkal	-8562
▁dilantin	-8563
▁PFO	-8564
▁lum	-8565
▁DVTs	-8566
▁Lumbar	-8567
Abdominal	-8568
▁Glaucoma	-8569
▁PUD	-8570
▁parest	-8571
▁achieved	-8572
itriptyline	-8573
▁Osteoporosis	-8574
▁tolerability	-8575
THER	-8576
▁IPH	-8577
▁Difficult	-8578
ycophen	-8579
▁Shortness	-8580
▁Recently	-8581
intestinal	-8582
-137	-8583
▁Acet	-8584
OBIL	-8585
▁BMS	-8586
▁tip	-8587
IRUBIN	-8588
▁Disorder	-8589
▁BILIRUBIN	-8590
anging	-8591
▁reach	-8592
▁warmth	-8593
aminases	-8594
SC	-8595
cophage	-8596
mus	-8597
rive	-8598
▁lot	-8599
olpid	-8600
liquis	-8601
lucophage	-8602
mal	-8603
▁circ	-8604
▁Com	-8605
▁Apixaban	-8606
-96	-8607
pain	-8608
▁ana	-8609
dimer	-8610
olpidem	-8611
▁Rectal	-8612
▁disposition	-8613
obarb	-8614
▁brown	-8615
ellular	-8616
▁Access	-8617
ensated	-8618
▁believe	-8619
SM	-8620
▁Vanco	-8621
▁chart	-8622
▁psychosis	-8623
▁Congestive	-8624
▁mucosa	-8625
▁Dilantin	-8626
SGPT	-8627
▁SFA	-8628
orous	-8629
▁VICU	-8630
▁tunneled	-8631
▁Normocytic	-8632
▁tachypnea	-8633
erately	-8634
vitamin	-8635
▁Hypoxia	-8636
▁requirements	-8637
RITE	-8638
▁abscesses	-8639
-80	-8640
▁90%	-8641
▁gem	-8642
▁let	-8643
oprim	-8644
rotic	-8645
▁autonomic	-8646
▁HYPERTENSION	-8647
reon	-8648
▁NITRITE	-8649
▁antiemetics	-8650
▁neurosurgical	-8651
ug	-8652
▁LEN	-8653
robid	-8654
▁KETONE	-8655
▁gallstones	-8656
NGN	-8657
▁Legal	-8658
OBILNGN	-8659
▁UROBILNGN	-8660
uv	-8661
▁TF	-8662
eness	-8663
▁FOLF	-8664
▁veins	-8665
ethoprim	-8666
▁biomark	-8667
omfortable	-8668
ertain	-8669
▁preferred	-8670
▁suture	-8671
▁Provider	-8672
▁improves	-8673
▁variceal	-8674
UD	-8675
▁fecal	-8676
▁radius	-8677
▁urologist	-8678
omas	-8679
▁typ	-8680
utrin	-8681
▁Signs	-8682
▁exceed	-8683
resh	-8684
▁tired	-8685
▁SPEP	-8686
▁mask	-8687
ronate	-8688
rocodone	-8689
▁bridged	-8690
izz	-8691
▁WBCs	-8692
Flagyl	-8693
▁ventilator	-8694
▁Pers	-8695
▁endorse	-8696
cription	-8697
▁Allopurinol	-8698
▁atheroscler	-8699
▁eng	-8700
▁gest	-8701
▁nuclear	-8702
▁LR	-8703
butrin	-8704
Neut	-8705
hyp	-8706
▁lac	-8707
▁weak	-8708
hyroid	-8709
▁LYMPHS	-8710
▁careful	-8711
▁epileptiform	-8712
▁Be	-8713
asilar	-8714
▁Review	-8715
▁tendon	-8716
LU	-8717
-3.3	-8718
▁dam	-8719
▁VATS	-8720
▁easily	-8721
▁disturb	-8722
▁osteoarthritis	-8723
▁cardiopulmonary	-8724
cillin	-8725
CLC	-8726
esin	-8727
▁Vals	-8728
Atrial	-8729
▁danger	-8730
▁Supple	-8731
Mono	-8732
▁fir	-8733
▁Team	-8734
▁wheeze	-8735
▁satting	-8736
▁measured	-8737
▁irritation	-8738
sepsis	-8739
cectomy	-8740
▁duodenum	-8741
▁Rate	-8742
▁exud	-8743
▁Podiatry	-8744
depression	-8745
Eos	-8746
▁meal	-8747
inence	-8748
reater	-8749
▁folic	-8750
▁hiatal	-8751
▁5-	-8752
avian	-8753
▁AbsNeut	-8754
check	-8755
▁opiate	-8756
epile	-8757
▁sacral	-8758
orectomy	-8759
▁prepped	-8760
▁suggests	-8761
▁reversible	-8762
Baso	-8763
Lymp	-8764
elled	-8765
▁HYDRO	-8766
▁ratio	-8767
▁AbsEos	-8768
▁AbsBaso	-8769
▁AbsLymp	-8770
▁AbsMono	-8771
▁radiographic	-8772
▁02	-8773
▁7-	-8774
rand	-8775
oplasm	-8776
nz	-8777
LDL	-8778
▁Ori	-8779
orbidities	-8780
▁conditions	-8781
days	-8782
hing	-8783
▁___-	-8784
arbitr	-8785
▁ventricle	-8786
▁Tbili	-8787
▁drugs	-8788
oncology	-8789
▁amylase	-8790
odz	-8791
nzodz	-8792
▁LUNG	-8793
▁cysts	-8794
▁multi	-8795
▁spread	-8796
▁solumedrol	-8797
eron	-8798
▁Solution	-8799
▁protonix	-8800
ycophenolate	-8801
lude	-8802
▁25.	-8803
▁digit	-8804
▁thrombectomy	-8805
▁Past	-8806
itrite	-8807
▁dorsal	-8808
atar	-8809
erted	-8810
▁center	-8811
▁tamponade	-8812
handed	-8813
▁Continu	-8814
▁je	-8815
-25.	-8816
LVEF	-8817
lder	-8818
▁upd	-8819
onebs	-8820
▁neurop	-8821
▁deceased	-8822
▁probable	-8823
ophorectomy	-8824
▁RUL	-8825
▁Inpatient	-8826
▁amoxicillin	-8827
▁nose	-8828
▁Prost	-8829
▁cholesterol	-8830
▁Occupational	-8831
-97	-8832
nex	-8833
▁Rx	-8834
▁grand	-8835
▁vagina	-8836
▁systems	-8837
▁detox	-8838
personal	-8839
▁amyloid	-8840
▁Dig	-8841
▁way	-8842
obronch	-8843
▁uptitration	-8844
VHD	-8845
▁salpingo	-8846
ah	-8847
me	-8848
cipro	-8849
ering	-8850
orrhea	-8851
▁sarcoid	-8852
▁Labetalol	-8853
▁interaction	-8854
oderm	-8855
▁Port	-8856
▁facil	-8857
▁dinner	-8858
ological	-8859
▁bathroom	-8860
70	-8861
BCL	-8862
icle	-8863
bally	-8864
▁ulnar	-8865
▁primarily	-8866
zed	-8867
▁ACEi	-8868
▁Goal	-8869
▁Amoxicillin	-8870
▁alternative	-8871
▁guid	-8872
▁heroin	-8873
lab	-8874
-101	-8875
▁double	-8876
▁indefin	-8877
▁Pravastatin	-8878
▁Name	-8879
2.5	-8880
▁AG	-8881
onsiveness	-8882
▁contaminant	-8883
▁biventricular	-8884
SGOT	-8885
▁target	-8886
▁Recommended	-8887
ML	-8888
▁>5	-8889
▁cortisol	-8890
▁finished	-8891
▁emphysema	-8892
▁Intensive	-8893
▁psychotic	-8894
▁Min	-8895
▁vit	-8896
arean	-8897
▁102.	-8898
▁ACEI	-8899
junostomy	-8900
▁pulmonologist	-8901
CIUM	-8902
oplasty	-8903
▁normocytic	-8904
▁ulcerative	-8905
▁helpful	-8906
▁relative	-8907
bi	-8908
▁located	-8909
▁hypercarb	-8910
▁temporary	-8911
-->	-8912
▁Sepsis	-8913
ocellular	-8914
▁adjustments	-8915
▁fra	-8916
▁Main	-8917
▁beginning	-8918
▁nail	-8919
▁Viral	-8920
Glucophage	-8921
▁reporting	-8922
▁tracheostomy	-8923
▁-------------	-8924
▁58	-8925
ulum	-8926
▁perit	-8927
▁terms	-8928
▁cold	-8929
▁CHANG	-8930
▁Goals	-8931
azepine	-8932
-38.	-8933
GNES	-8934
▁Prob	-8935
▁Check	-8936
▁basic	-8937
▁basilar	-8938
▁Retention	-8939
▁vasculitis	-8940
▁discontinuing	-8941
▁dip	-8942
▁mand	-8943
reases	-8944
▁AAOx	-8945
▁replete	-8946
▁subarachnoid	-8947
-94	-8948
▁Dressing	-8949
more	-8950
▁metal	-8951
▁measure	-8952
▁midnight	-8953
▁EMERGENCY	-8954
▁FE	-8955
oday	-8956
▁ooz	-8957
▁Fluid	-8958
esarean	-8959
▁switch	-8960
▁Bl	-8961
▁gets	-8962
▁Bacter	-8963
▁rhin	-8964
-39.	-8965
▁role	-8966
▁Plastic	-8967
▁suffered	-8968
▁famotidine	-8969
-1.8	-8970
▁18.	-8971
onin	-8972
▁PTSD	-8973
ovirus	-8974
▁CHEST	-8975
▁Large	-8976
▁mucus	-8977
ischemic	-8978
▁wheelchair	-8979
▁ol	-8980
olazone	-8981
▁Additional	-8982
▁splenomegaly	-8983
▁Phen	-8984
▁lunch	-8985
▁radical	-8986
OCYT	-8987
▁Disk	-8988
▁liter	-8989
▁Health	-8990
▁triple	-8991
hythmias	-8992
▁drift	-8993
▁Lymphoma	-8994
▁profound	-8995
-25	-8996
uling	-8997
▁Dexamethasone	-8998
acia	-8999
▁INH	-9000
▁#*20	-9001
▁NSCLC	-9002
chanter	-9003
▁presum	-9004
▁Xarelto	-9005
OSES	-9006
▁0.7	-9007
▁CALCIUM	-9008
Any	-9009
▁3-	-9010
▁lik	-9011
▁#*50	-9012
▁resident	-9013
olume	-9014
▁almost	-9015
▁insertion	-9016
▁Subsequently	-9017
fol	-9018
▁GA	-9019
inum	-9020
Avoid	-9021
guided	-9022
ynamic	-9023
pezil	-9024
▁DROP	-9025
▁gravid	-9026
▁displaced	-9027
rimethoprim	-9028
ventricular	-9029
Sulf	-9030
amatic	-9031
rush	-9032
ensit	-9033
▁attend	-9034
ier	-9035
▁overt	-9036
obacter	-9037
▁hypercalcemia	-9038
▁patches	-9039
▁Decreased	-9040
▁sevelamer	-9041
▁hydrocortisone	-9042
▁TEDs	-9043
▁dosage	-9044
▁outl	-9045
▁Lapar	-9046
▁electively	-9047
HIV	-9048
▁BCx	-9049
▁explan	-9050
specific	-9051
▁filled	-9052
ault	-9053
▁MDS	-9054
▁uses	-9055
▁sources	-9056
▁exception	-9057
▁Propionate	-9058
▁ecchymosis	-9059
▁46	-9060
hypertensive	-9061
▁retroperitoneal	-9062
▁stre	-9063
▁embolus	-9064
-85	-9065
▁UP	-9066
rotal	-9067
reason	-9068
▁collateral	-9069
####	-9070
allen	-9071
▁EYES	-9072
▁bump	-9073
▁palsy	-9074
ctasis	-9075
▁running	-9076
▁polysubstance	-9077
▁certain	-9078
▁coordinating	-9079
vasc	-9080
uresis	-9081
▁reglan	-9082
▁hypertrophy	-9083
ixis	-9084
▁Spl	-9085
▁clip	-9086
GNESIUM	-9087
▁DIAGNOSES	-9088
CKD	-9089
▁5,	-9090
▁suc	-9091
olter	-9092
▁Tube	-9093
▁obje	-9094
▁rare	-9095
▁MAGNESIUM	-9096
▁sometimes	-9097
aprine	-9098
▁dramatic	-9099
▁prolapse	-9100
▁reflexes	-9101
----------	-9102
lobulin	-9103
▁sedating	-9104
▁ut	-9105
▁pink	-9106
▁favor	-9107
▁ABDOMEN	-9108
▁plateau	-9109
▁modified	-9110
▁Today	-9111
▁Valsartan	-9112
▁vasospasm	-9113
▁led	-9114
▁conne	-9115
evaluated	-9116
▁intolerance	-9117
▁MMF	-9118
▁NASH	-9119
▁vomit	-9120
▁Reason	-9121
▁somnolent	-9122
▁20.	-9123
lycer	-9124
▁subm	-9125
oembolic	-9126
enzaprine	-9127
▁VP	-9128
TRAN	-9129
ibasilar	-9130
▁Transferred	-9131
▁Cardiovascular	-9132
CESS	-9133
▁send	-9134
▁damage	-9135
▁optimize	-9136
▁thickened	-9137
▁Ct	-9138
▁PTBD	-9139
▁#2,	-9140
omies	-9141
▁tons	-9142
▁flares	-9143
▁somnolence	-9144
▁nothing	-9145
▁emergently	-9146
▁exploration	-9147
▁mut	-9148
place	-9149
▁Hand	-9150
▁fatty	-9151
▁moderately	-9152
▁HIT	-9153
atible	-9154
▁cyanosis	-9155
▁counter	-9156
▁tremors	-9157
▁Acyclovir	-9158
▁Cx	-9159
▁PTH	-9160
alate	-9161
▁clam	-9162
▁aster	-9163
▁NI	-9164
FORMIN	-9165
▁passive	-9166
▁restrain	-9167
▁52	-9168
IDA	-9169
▁23.	-9170
using	-9171
▁LEFT	-9172
▁keflex	-9173
▁BILI	-9174
▁desatur	-9175
including	-9176
▁Sensation	-9177
▁CARDI	-9178
▁losses	-9179
▁ML	-9180
ager	-9181
▁looked	-9182
▁Nephrology	-9183
▁subclavian	-9184
▁Clindamycin	-9185
▁thyroidectomy	-9186
▁0.2	-9187
▁lop	-9188
▁Pelvic	-9189
▁approach	-9190
vul	-9191
▁safely	-9192
MG	-9193
▁lupus	-9194
▁metop	-9195
We	-9196
▁faint	-9197
clusive	-9198
▁Pleural	-9199
▁Monitored	-9200
▁Encephalopathy	-9201
nic	-9202
▁gm	-9203
▁Fract	-9204
▁rales	-9205
Hyperlipidemia	-9206
▁mucous	-9207
▁describes	-9208
▁Asc	-9209
▁resting	-9210
▁AOx	-9211
agmus	-9212
ukast	-9213
▁Some	-9214
▁swollen	-9215
▁radiculopathy	-9216
▁LACT	-9217
aquone	-9218
▁canal	-9219
▁Rheumatology	-9220
uses	-9221
ulature	-9222
▁notably	-9223
▁biomarkers	-9224
▁22.	-9225
alamine	-9226
▁Pupils	-9227
ledge	-9228
▁stem	-9229
▁sitter	-9230
▁gangren	-9231
ayex	-9232
▁impaired	-9233
▁neupogen	-9234
▁deformity	-9235
iflu	-9236
▁ABG	-9237
▁Positive	-9238
▁Syndrome	-9239
▁HYPO	-9240
▁Wife	-9241
▁ritux	-9242
wash	-9243
adequ	-9244
▁thrive	-9245
pofol	-9246
▁abst	-9247
▁dimin	-9248
negative	-9249
aparenchymal	-9250
▁CL	-9251
rius	-9252
▁2.4	-9253
▁Cyt	-9254
ovaquone	-9255
▁Asymptomatic	-9256
acid	-9257
▁cross	-9258
▁elect	-9259
▁MWF	-9260
mental	-9261
▁adding	-9262
▁images	-9263
▁reproduc	-9264
1-	-9265
▁Use	-9266
▁pow	-9267
▁Discontinued	-9268
/3	-9269
icet	-9270
▁limb	-9271
▁spond	-9272
▁blockade	-9273
ostasis	-9274
propriate	-9275
olving	-9276
▁territ	-9277
▁underg	-9278
▁5)	-9279
▁bony	-9280
ulan	-9281
ences	-9282
▁Changed	-9283
loc	-9284
opin	-9285
ycle	-9286
▁Ophth	-9287
▁nause	-9288
▁Magnesium	-9289
athyroidism	-9290
▁opted	-9291
▁yeast	-9292
▁Tramadol	-9293
▁antithrombotic	-9294
▁47	-9295
▁param	-9296
bleeding	-9297
▁lopressor	-9298
axia	-9299
▁GRO	-9300
▁OTHER	-9301
▁territory	-9302
aly	-9303
▁92	-9304
▁cost	-9305
rometry	-9306
▁indicate	-9307
▁Alzheimer	-9308
Dys	-9309
▁likel	-9310
▁prompting	-9311
▁discussing	-9312
▁readmitted	-9313
do	-9314
hel	-9315
▁Gyn	-9316
start	-9317
▁subc	-9318
▁asterixis	-9319
00.	-9320
▁Gua	-9321
izziness	-9322
▁fingers	-9323
2-3	-9324
▁VB	-9325
icone	-9326
▁Injur	-9327
▁urinate	-9328
AST	-9329
▁jaw	-9330
▁perine	-9331
▁leukopenia	-9332
alox	-9333
ihood	-9334
▁Refer	-9335
▁frank	-9336
▁adnex	-9337
icterus	-9338
▁ferrous	-9339
▁endocrine	-9340
▁nystagmus	-9341
▁VII	-9342
▁dermatitis	-9343
ensitization	-9344
vet	-9345
▁seconds	-9346
▁slowing	-9347
uric	-9348
▁High	-9349
▁creat	-9350
▁worker	-9351
▁43	-9352
▁ct	-9353
ydia	-9354
▁hypercoagul	-9355
▁undetectable	-9356
RR	-9357
ATED	-9358
▁IgM	-9359
▁wax	-9360
▁ranging	-9361
▁MetFORMIN	-9362
▁infusions	-9363
▁Antiplatelet	-9364
▁Antithrombotic	-9365
ephal	-9366
assisted	-9367
▁Doppler	-9368
▁benadryl	-9369
▁undergone	-9370
▁obstructing	-9371
opril	-9372
▁TLSO	-9373
▁treating	-9374
astics	-9375
▁cycled	-9376
ieves	-9377
▁anorexia	-9378
▁investigation	-9379
▁IBD	-9380
▁Cervical	-9381
▁conversation	-9382
.5,	-9383
face	-9384
▁reached	-9385
ets	-9386
ragm	-9387
▁Pse	-9388
▁sil	-9389
▁trying	-9390
iopathic	-9391
▁LACTATE	-9392
▁icterus	-9393
▁fingersticks	-9394
-125	-9395
neck	-9396
tn	-9397
▁SVD	-9398
▁Abnormal	-9399
▁pyuria	-9400
▁noncompliance	-9401
%)	-9402
▁57	-9403
losp	-9404
▁LBBB	-9405
▁eros	-9406
▁seeing	-9407
perfused	-9408
▁correct	-9409
▁localized	-9410
amiv	-9411
▁EVD	-9412
▁baby	-9413
▁blurr	-9414
rip	-9415
▁initiate	-9416
▁Gastroenter	-9417
▁established	-9418
▁MIBI	-9419
▁inver	-9420
▁Evaluated	-9421
apro	-9422
otal	-9423
▁ert	-9424
putum	-9425
▁Stud	-9426
▁HEART	-9427
▁crush	-9428
▁coagul	-9429
▁phenytoin	-9430
▁supported	-9431
▁Paroxysmal	-9432
▁mononitrate	-9433
▁(8)	-9434
▁Soln	-9435
▁bear	-9436
▁drow	-9437
▁chemical	-9438
▁sequentially	-9439
▁affe	-9440
▁root	-9441
▁makes	-9442
▁reassess	-9443
▁schizophrenia	-9444
▁aud	-9445
▁minimize	-9446
▁'	-9447
hoff	-9448
plasia	-9449
▁Upper	-9450
▁chemist	-9451
-4.7	-9452
Left	-9453
scopic	-9454
▁inadequ	-9455
▁compatible	-9456
ASON	-9457
▁else	-9458
▁begun	-9459
lamydia	-9460
morphone	-9461
▁96%	-9462
izures	-9463
▁constant	-9464
▁chlorthalidone	-9465
▁BKA	-9466
stent	-9467
coagulation	-9468
Rec	-9469
ithro	-9470
▁cyclosp	-9471
▁resuscitated	-9472
non	-9473
yber	-9474
▁30.	-9475
▁CBI	-9476
▁Attack	-9477
▁Fevers	-9478
▁Hepatology	-9479
▁likelihood	-9480
▁pseudoaneurysm	-9481
#3	-9482
▁DDx	-9483
bloody	-9484
▁Suspension	-9485
cath	-9486
▁Mass	-9487
▁name	-9488
▁Sulfa	-9489
▁challen	-9490
▁reversed	-9491
udes	-9492
citabine	-9493
▁spirrometry	-9494
-1.2	-9495
▁Part	-9496
▁matter	-9497
resolved	-9498
▁Migrain	-9499
▁contacts	-9500
-106	-9501
plan	-9502
▁24.	-9503
▁HDL	-9504
▁fellow	-9505
Diabetes	-9506
▁Lidocaine	-9507
iny	-9508
osu	-9509
ILURE	-9510
usual	-9511
▁hypoxemic	-9512
▁transaminases	-9513
ROM	-9514
TIES	-9515
etem	-9516
▁1.3.	-9517
▁dermat	-9518
perazine	-9519
appearing	-9520
▁Benadryl	-9521
▁extravas	-9522
▁prescrib	-9523
▁formation	-9524
▁stiffness	-9525
▁HYDROmorphone	-9526
bien	-9527
▁SH	-9528
ITIS	-9529
▁2.3	-9530
▁PHOSPH	-9531
▁desaturation	-9532
▁hgb	-9533
▁adenoma	-9534
ffee	-9535
▁live	-9536
radycardia	-9537
▁nonspecific	-9538
3-25	-9539
Your	-9540
▁102	-9541
▁pool	-9542
istaxis	-9543
tit	-9544
▁escal	-9545
romide	-9546
▁nadir	-9547
▁PHOSPHATE	-9548
OLD	-9549
mot	-9550
ocytes	-9551
▁peroneal	-9552
5%,	-9553
Pain	-9554
▁SLE	-9555
▁severely	-9556
▁53	-9557
▁proct	-9558
▁spasms	-9559
▁Extensive	-9560
▁propranolol	-9561
yr	-9562
-0.1	-9563
▁26.	-9564
▁BPP	-9565
▁FAILURE	-9566
▁41	-9567
obal	-9568
ptive	-9569
▁spot	-9570
▁suff	-9571
▁becomes	-9572
▁squamous	-9573
lops	-9574
▁lithium	-9575
▁glyburide	-9576
iocarcinoma	-9577
▁duloxetine	-9578
▁refusing	-9579
illed	-9580
Eq	-9581
▁BG	-9582
iban	-9583
▁diag	-9584
▁knowledge	-9585
▁induration	-9586
bic	-9587
lug	-9588
atica	-9589
follow	-9590
▁DI	-9591
▁OA	-9592
ries	-9593
▁REASON	-9594
▁EXTRE	-9595
▁bring	-9596
▁pod	-9597
▁occult	-9598
bilirubin	-9599
/80	-9600
obalamin	-9601
symptoms	-9602
▁phenobarb	-9603
▁antibodies	-9604
▁arrhythmias	-9605
chlorperazine	-9606
/-	-9607
son	-9608
▁Abx	-9609
ontel	-9610
▁Coag	-9611
▁GVHD	-9612
▁enlarge	-9613
▁coagulopathy	-9614
▁<1	-9615
itating	-9616
▁pupils	-9617
▁paresthesias	-9618
imen	-9619
▁From	-9620
▁octreotide	-9621
▁LENIs	-9622
▁obese	-9623
entesis	-9624
▁foreign	-9625
▁56	-9626
▁others	-9627
▁respective	-9628
ament	-9629
▁greatly	-9630
▁umbilical	-9631
▁Pancreatitis	-9632
▁>7	-9633
-142	-9634
fever	-9635
ository	-9636
▁Artery	-9637
▁cholest	-9638
▁emptying	-9639
ocobalamin	-9640
vetiracetam	-9641
LIC	-9642
eros	-9643
▁betamethasone	-9644
-41.	-9645
Will	-9646
▁Coli	-9647
▁Tobacco	-9648
▁nodular	-9649
▁Diagnosed	-9650
-99	-9651
Met	-9652
▁Py	-9653
▁hot	-9654
ected	-9655
stage	-9656
thyroidism	-9657
asth	-9658
▁3.1	-9659
▁equal	-9660
▁bridging	-9661
ontelukast	-9662
▁indefinitely	-9663
chanteric	-9664
▁rhab	-9665
Asthma	-9666
▁i	-9667
antar	-9668
▁diss	-9669
▁effort	-9670
iectasis	-9671
▁gastropathy	-9672
▁id	-9673
ridium	-9674
▁orthostatics	-9675
att	-9676
▁99	-9677
▁tPA	-9678
▁loops	-9679
parathyroidism	-9680
▁extravasation	-9681
CR	-9682
ctar	-9683
▁6.25	-9684
▁eryth	-9685
NS	-9686
▁concent	-9687
▁passage	-9688
▁preliminary	-9689
ESR	-9690
:*2*	-9691
ompan	-9692
ureus	-9693
▁Arth	-9694
▁drinks	-9695
-1.7	-9696
-2.1	-9697
▁anemic	-9698
▁smoker	-9699
▁Neurologic	-9700
▁ace	-9701
▁54	-9702
▁esc	-9703
▁Rash	-9704
ositis	-9705
▁collapse	-9706
DIP	-9707
▁purp	-9708
▁21.	-9709
▁ter	-9710
▁educated	-9711
▁formulary	-9712
▁scalp	-9713
▁those	-9714
▁Cap	-9715
oneum	-9716
▁#*14	-9717
ramide	-9718
▁consent	-9719
/60	-9720
eal	-9721
left	-9722
▁conf	-9723
osocial	-9724
udesonide	-9725
▁NP	-9726
▁ALL	-9727
Sulfon	-9728
oplatin	-9729
▁Digoxin	-9730
▁Finding	-9731
3-26	-9732
▁Ris	-9733
▁hit	-9734
irium	-9735
mother	-9736
ifenesin	-9737
=========	-9738
UQ	-9739
▁haldol	-9740
▁Dermatology	-9741
TA	-9742
▁onto	-9743
▁coffee	-9744
▁appendix	-9745
TRANSITIONAL	-9746
▁cryst	-9747
▁shown	-9748
▁defects	-9749
▁olanzapine	-9750
Right	-9751
▁Glycol	-9752
▁Polyethylene	-9753
▁contributory	-9754
post	-9755
▁PTA	-9756
▁sig	-9757
▁Mid	-9758
▁substernal	-9759
reen	-9760
▁stock	-9761
▁toxin	-9762
▁closer	-9763
▁reverse	-9764
▁instruction	-9765
BNP	-9766
3-27	-9767
enta	-9768
▁lib	-9769
-4.8	-9770
amicin	-9771
domy	-9772
▁hall	-9773
atemia	-9774
iction	-9775
omalacia	-9776
▁Summary	-9777
▁enlargement	-9778
-3.2	-9779
▁APPE	-9780
▁Presumed	-9781
-5.0	-9782
FTER	-9783
izine	-9784
▁37.5	-9785
▁opening	-9786
evaluation	-9787
▁explanation	-9788
bilirubinemia	-9789
▁TWI	-9790
▁elder	-9791
▁vicodin	-9792
▁enhancing	-9793
▁paperwork	-9794
inflammatory	-9795
▁intrahepatic	-9796
▁hydrocephalus	-9797
▁fossa	-9798
▁desensitization	-9799
iln	-9800
▁Abuse	-9801
▁spike	-9802
etemibe	-9803
▁massive	-9804
▁scleral	-9805
LODIP	-9806
ientation	-9807
raind	-9808
inib	-9809
/30	-9810
adv	-9811
urant	-9812
▁gynec	-9813
▁cesarean	-9814
DOM	-9815
rose	-9816
▁240	-9817
acting	-9818
▁buttock	-9819
▁bibasilar	-9820
▁discharges	-9821
▁BY	-9822
▁MG	-9823
▁Sch	-9824
junctiv	-9825
▁Unable	-9826
▁believes	-9827
arterectomy	-9828
▁reasonable	-9829
PCP	-9830
3-24	-9831
▁RIGHT	-9832
onsistent	-9833
▁Weakness	-9834
▁checking	-9835
epartum	-9836
▁daptomycin	-9837
▁sigmoidoscopy	-9838
▁TD	-9839
otalol	-9840
▁Toradol	-9841
▁Unlikely	-9842
lub	-9843
zosyn	-9844
▁watery	-9845
moderate	-9846
▁Greater	-9847
▁sclerosis	-9848
▁benzodiazep	-9849
▁Ven	-9850
▁cocc	-9851
▁Difficulty	-9852
▁perforated	-9853
Leukocytosis	-9854
▁respectively	-9855
▁distributions	-9856
DVT	-9857
▁Ed	-9858
▁1.5.	-9859
▁Predn	-9860
ioricet	-9861
▁accompan	-9862
ORMAL	-9863
▁COLOR	-9864
ethicone	-9865
▁oxygenation	-9866
▁vasculature	-9867
obia	-9868
▁wks	-9869
▁AFTER	-9870
▁DLBCL	-9871
▁Leuks	-9872
▁Altern	-9873
hospital	-9874
▁bruising	-9875
▁sucralfate	-9876
▁Laparoscopic	-9877
▁endovascular	-9878
will	-9879
▁28.	-9880
razolam	-9881
▁unusual	-9882
rub	-9883
eters	-9884
-<0.01	-9885
▁nodal	-9886
eriatrics	-9887
▁PEs	-9888
▁UGIB	-9889
othing	-9890
units	-9891
▁Poor	-9892
▁Injury	-9893
oplastic	-9894
▁contraind	-9895
MR	-9896
▁scar	-9897
▁Toxic	-9898
▁rigid	-9899
▁processes	-9900
▁Gro	-9901
eterm	-9902
▁ANEMIA	-9903
▁correlate	-9904
.,	-9905
▁manif	-9906
▁oozing	-9907
▁trouble	-9908
▁Depakote	-9909
▁obtaining	-9910
▁RBCs	-9911
emoboots	-9912
▁EXTREMI	-9913
▁Treatment	-9914
was	-9915
wake	-9916
rother	-9917
▁APPEAR	-9918
Consider	-9919
▁diminished	-9920
▁ju	-9921
▁Fem	-9922
▁alk	-9923
oclop	-9924
▁Urob	-9925
▁abru	-9926
▁Dry	-9927
▁fit	-9928
▁anap	-9929
▁mean	-9930
gments	-9931
ribute	-9932
▁1.2.	-9933
▁pill	-9934
▁push	-9935
▁assoc	-9936
▁27.	-9937
▁BAL	-9938
ception	-9939
etilide	-9940
▁*40	-9941
▁Scler	-9942
▁Pathology	-9943
▁gluconate	-9944
▁lamotrigine	-9945
-33	-9946
OLOGY	-9947
rotizing	-9948
▁duonebs	-9949
heit	-9950
▁Sten	-9951
▁Drain	-9952
▁brisk	-9953
History	-9954
▁provoked	-9955
▁gastrectomy	-9956
▁ever	-9957
▁objects	-9958
%),	-9959
▁neo	-9960
MRA	-9961
-40.	-9962
▁uptr	-9963
▁Nitrite	-9964
▁signal	-9965
▁precipitated	-9966
-3.0	-9967
arkins	-9968
▁Sputum	-9969
▁lactic	-9970
▁Diazepam	-9971
▁reversal	-9972
21	-9973
dec	-9974
Discharge	-9975
ezetemibe	-9976
▁interpre	-9977
▁Bilirub	-9978
▁softeners	-9979
-84	-9980
acl	-9981
▁NSAIDS	-9982
▁persists	-9983
▁depressive	-9984
▁Felt	-9985
▁Child	-9986
labored	-9987
▁Urobiln	-9988
▁Carotid	-9989
▁relapse	-9990
▁complains	-9991
▁reproducible	-9992
-95	-9993
ahren	-9994
▁hands	-9995
ahrenheit	-9996
▁serology	-9997
ifications	-9998
▁medicines	-9999
-136	-10000
asic	-10001
▁Date	-10002
▁word	-10003
▁Ketone	-10004
▁baclofen	-10005
audication	-10006
▁Fahrenheit	-10007
▁advancement	-10008
▁#3	-10009
▁(___):	-10010
▁notice	-10011
prazolam	-10012
affective	-10013
▁Hydromorphone	-10014
▁Hemorrh	-10015
▁resuming	-10016
▁consum	-10017
▁Notably	-10018
▁bottles	-10019
▁comorbidities	-10020
▁ice	-10021
amber	-10022
arcer	-10023
▁Hemod	-10024
Severe	-10025
fetilide	-10026
cemic	-10027
▁mammary	-10028
▁apparently	-10029
▁unwitnessed	-10030
ispl	-10031
▁19.	-10032
itivity	-10033
▁ataxia	-10034
▁cephal	-10035
▁decadron	-10036
▁Telemetry	-10037
▁Leak	-10038
▁grams	-10039
idime	-10040
▁limit	-10041
▁downward	-10042
▁ertapenem	-10043
-29	-10044
opress	-10045
-/	-10046
izo	-10047
-650	-10048
Take	-10049
▁Cyclo	-10050
▁START	-10051
anoprost	-10052
ilateral	-10053
▁willing	-10054
▁conduction	-10055
LODIPine	-10056
▁Divertic	-10057
▁typically	-10058
▁infiltrates	-10059
▁splenectomy	-10060
▁anticipation	-10061
▁continuation	-10062
CPK	-10063
▁sum	-10064
ocalc	-10065
ROLOGY	-10066
▁barium	-10067
▁carcin	-10068
▁motrin	-10069
▁ventilation	-10070
Nausea	-10071
ococcal	-10072
▁Thyroid	-10073
▁increasingly	-10074
TIS	-10075
oidal	-10076
▁loading	-10077
▁IS	-10078
NORMAL	-10079
ematous	-10080
inopathy	-10081
▁____	-10082
▁prod	-10083
▁extent	-10084
▁neut	-10085
▁hemip	-10086
inolone	-10087
▁Prostate	-10088
▁urethral	-10089
pnemoboots	-10090
esting	-10091
▁moved	-10092
ivalent	-10093
infection	-10094
TER	-10095
▁bx	-10096
SONE	-10097
rates	-10098
▁capped	-10099
▁maintaining	-10100
ius	-10101
AMIN	-10102
omed	-10103
▁BOTH	-10104
▁clim	-10105
▁fluent	-10106
▁rigors	-10107
▁profile	-10108
▁amLODIPine	-10109
oophorectomy	-10110
-42.	-10111
back	-10112
▁smoke	-10113
▁switching	-10114
▁interrogated	-10115
IDDM	-10116
▁club	-10117
▁Flex	-10118
▁updated	-10119
▁Echocardiogram	-10120
#3,	-10121
irty	-10122
▁PNV	-10123
izoaffective	-10124
▁rubs	-10125
▁view	-10126
cephalic	-10127
▁opioids	-10128
▁Findings	-10129
▁venlafaxine	-10130
▁Clo	-10131
▁Son	-10132
▁orbital	-10133
▁Influenza	-10134
▁lethargic	-10135
▁Complications	-10136
▁PSA	-10137
▁obt	-10138
▁focused	-10139
▁sinusitis	-10140
▁metolazone	-10141
HL	-10142
ben	-10143
▁Acc	-10144
▁stimuli	-10145
▁pseudocyst	-10146
As	-10147
▁80%	-10148
▁crisis	-10149
draining	-10150
▁STI	-10151
inter	-10152
urity	-10153
▁etoh	-10154
vasive	-10155
▁Reglan	-10156
phthalmic	-10157
tinent	-10158
▁hilar	-10159
▁325-650	-10160
▁precipitant	-10161
Hep	-10162
LDH	-10163
▁firm	-10164
anguage	-10165
▁Bronch	-10166
▁bleeds	-10167
▁rhonchi	-10168
▁endarterectomy	-10169
▁VRE	-10170
▁cul	-10171
▁gone	-10172
nausea	-10173
▁>100,	-10174
▁EPOCH	-10175
edicated	-10176
perd	-10177
▁sle	-10178
▁Drop	-10179
▁transp	-10180
▁triage	-10181
▁tricuspid	-10182
▁quetiapine	-10183
▁)	-10184
▁PVC	-10185
healing	-10186
▁Benign	-10187
▁untreated	-10188
gkin	-10189
lopia	-10190
▁core	-10191
▁upset	-10192
▁nectar	-10193
▁endometri	-10194
▁pharmacist	-10195
▁4.5	-10196
▁draws	-10197
▁plantar	-10198
▁practice	-10199
▁Syn	-10200
▁bif	-10201
▁lady	-10202
odgkin	-10203
rength	-10204
aspirin	-10205
▁Sliding	-10206
▁levophed	-10207
▁Regarding	-10208
Constipation	-10209
▁Thromb	-10210
▁guardi	-10211
othyroid	-10212
▁physiology	-10213
▁Pul	-10214
▁bilious	-10215
▁inadequate	-10216
▁TY	-10217
chol	-10218
veloped	-10219
▁diverticular	-10220
▁IJ	-10221
▁pc	-10222
-17.	-10223
aken	-10224
▁MIC	-10225
izumab	-10226
▁LUNGS	-10227
▁benzodiazepines	-10228
▁dic	-10229
ixiban	-10230
▁dispo	-10231
▁placenta	-10232
domyolysis	-10233
▁calcitriol	-10234
cyt	-10235
furant	-10236
▁spray	-10237
oclopramide	-10238
▁qam	-10239
-200	-10240
edown	-10241
ulate	-10242
▁Colo	-10243
▁quit	-10244
▁compartment	-10245
oul	-10246
▁vest	-10247
▁deter	-10248
alin	-10249
ulous	-10250
▁1.4.	-10251
▁septal	-10252
ange	-10253
▁Bar	-10254
▁quant	-10255
atarsal	-10256
▁optimal	-10257
endronate	-10258
▁cystitis	-10259
:*30	-10260
erebral	-10261
▁Complicated	-10262
▁Hyperglycemia	-10263
▁unfortunately	-10264
▁51	-10265
once	-10266
▁2.6	-10267
coming	-10268
rophys	-10269
▁pauses	-10270
raumatic	-10271
▁Vicodin	-10272
▁Tolerated	-10273
▁nephrocaps	-10274
lb	-10275
▁MVC	-10276
▁perman	-10277
furantoin	-10278
▁ligament	-10279
▁understands	-10280
/2	-10281
beat	-10282
▁pouch	-10283
▁staple	-10284
▁Thiamine	-10285
▁necrotic	-10286
▁antepartum	-10287
4-6	-10288
EAST	-10289
lonopin	-10290
▁giving	-10291
▁stayed	-10292
▁UROLOGY	-10293
jejunostomy	-10294
▁Isosorbide	-10295
▁discretion	-10296
OLE	-10297
race	-10298
▁rods	-10299
▁Pancytopenia	-10300
pes	-10301
▁bum	-10302
ioprine	-10303
IDS	-10304
sor	-10305
rophic	-10306
syncope	-10307
▁Holding	-10308
/70	-10309
▁weigh	-10310
▁milieu	-10311
===========	-10312
▁lasting	-10313
▁Urinalysis	-10314
URES	-10315
illa	-10316
▁IgA	-10317
black	-10318
▁nearly	-10319
ftazidime	-10320
▁Results	-10321
▁machine	-10322
▁Radiation	-10323
▁kne	-10324
▁Admin	-10325
atremic	-10326
▁suboxone	-10327
Onc	-10328
▁pole	-10329
▁uncomfortable	-10330
oia	-10331
▁SIRS	-10332
▁flash	-10333
▁bloating	-10334
/4	-10335
-6.5	-10336
PRESSION	-10337
▁barbitr	-10338
▁contaminated	-10339
EASE	-10340
ille	-10341
▁bnzodz	-10342
▁ov	-10343
iSONE	-10344
▁teeth	-10345
▁stating	-10346
▁hypernatremia	-10347
▁Ster	-10348
▁Stenosis	-10349
▁resolves	-10350
iece	-10351
▁112	-10352
▁DISEASE	-10353
▁detected	-10354
Et	-10355
▁incomplete	-10356
MO	-10357
▁ond	-10358
oloft	-10359
▁Brief	-10360
▁Significant	-10361
▁hematologist	-10362
orn	-10363
▁Gra	-10364
▁ACCESS	-10365
▁Return	-10366
▁nurses	-10367
▁scrotal	-10368
athioprine	-10369
▁vomitting	-10370
▁cephalexin	-10371
olism	-10372
▁tooth	-10373
▁Valium	-10374
▁contribute	-10375
▁clubbing	-10376
▁Hematuria	-10377
sen	-10378
▁Nad	-10379
ilify	-10380
▁perc	-10381
▁sheath	-10382
▁10-	-10383
▁875	-10384
▁notify	-10385
▁paranoid	-10386
▁eosinophilia	-10387
▁prolongation	-10388
Hem	-10389
ynin	-10390
▁RCC	-10391
▁NECK	-10392
▁stat	-10393
▁abras	-10394
▁diver	-10395
▁indicative	-10396
BPH	-10397
▁ITP	-10398
▁foc	-10399
hours	-10400
▁Edema	-10401
▁itching	-10402
▁deterior	-10403
▁unsteady	-10404
▁risperidone	-10405
▁49	-10406
▁dent	-10407
ropine	-10408
butynin	-10409
▁Hypertensive	-10410
▁ophthalmology	-10411
uck	-10412
▁cool	-10413
▁pains	-10414
▁retic	-10415
▁vocal	-10416
ilation	-10417
▁tracheal	-10418
▁extensively	-10419
olip	-10420
▁Pap	-10421
▁asym	-10422
itally	-10423
▁YEAST	-10424
▁heter	-10425
Vitamin	-10426
zen	-10427
▁Cath	-10428
▁___'	-10429
▁missing	-10430
Sal	-10431
CTION	-10432
eding	-10433
▁Gram	-10434
▁Supp	-10435
▁compazine	-10436
▁claudication	-10437
▁wr	-10438
▁PredniSONE	-10439
-60	-10440
orie	-10441
idopa	-10442
cepted	-10443
▁stern	-10444
▁fairly	-10445
▁takedown	-10446
▁urination	-10447
-24.	-10448
ovir	-10449
duction	-10450
▁across	-10451
▁doctors	-10452
▁Diuretic	-10453
▁Metabolic	-10454
▁completing	-10455
ESRD	-10456
▁RFA	-10457
thema	-10458
▁gaze	-10459
ours	-10460
▁rememb	-10461
▁meningioma	-10462
asta	-10463
aller	-10464
▁TRANSI	-10465
▁Hypokalemia	-10466
▁intoxicated	-10467
ued	-10468
▁sque	-10469
▁strictly	-10470
osuvastatin	-10471
▁restraints	-10472
▁Lipitor	-10473
▁Nothing	-10474
▁>=	-10475
▁wt	-10476
▁rol	-10477
▁robotic	-10478
▁Decision	-10479
▁preference	-10480
izer	-10481
-13.2	-10482
▁Workup	-10483
▁Eliquis	-10484
▁parameters	-10485
▁contamination	-10486
Ins	-10487
iju	-10488
▁PEA	-10489
itioner	-10490
▁immobil	-10491
▁definite	-10492
-34	-10493
stem	-10494
▁2.7	-10495
acyclovir	-10496
▁incarcer	-10497
simvastatin	-10498
insic	-10499
▁phot	-10500
iferol	-10501
▁Fluoxetine	-10502
▁restrictive	-10503
▁MB	-10504
amate	-10505
osing	-10506
esartan	-10507
▁intially	-10508
▁outlined	-10509
==========	-10510
▁legionella	-10511
1)	-10512
flow	-10513
▁DIC	-10514
▁cho	-10515
▁blurry	-10516
▁substant	-10517
▁59	-10518
arest	-10519
▁Xray	-10520
▁pitting	-10521
▁Nicotine	-10522
▁ruptured	-10523
▁temporarily	-10524
ulasta	-10525
▁labet	-10526
agement	-10527
lessness	-10528
▁weaning	-10529
▁dop	-10530
aries	-10531
▁Uric	-10532
ashion	-10533
iently	-10534
severe	-10535
▁Increasing	-10536
▁Sust	-10537
▁adherence	-10538
▁interview	-10539
▁occasions	-10540
4-5	-10541
-1.6	-10542
ENAL	-10543
ells	-10544
▁htn	-10545
▁enal	-10546
▁runs	-10547
▁Atrius	-10548
▁fashion	-10549
▁initiating	-10550
18	-10551
▁GR	-10552
▁2.8	-10553
▁enema	-10554
▁neuros	-10555
▁Rosuvastatin	-10556
▁penic	-10557
▁arryth	-10558
Vomiting	-10559
▁anatomy	-10560
▁leukemia	-10561
▁urgently	-10562
-28	-10563
▁puff	-10564
▁wind	-10565
erosol	-10566
▁jejun	-10567
oactive	-10568
▁Mirtazapine	-10569
▁necrotizing	-10570
▁CONS	-10571
▁Carb	-10572
▁Stress	-10573
▁29.	-10574
▁Biopsy	-10575
▁Bladder	-10576
▁gallops	-10577
▁laparoscopy	-10578
▁transported	-10579
▁organization	-10580
SBG	-10581
▁Fo	-10582
▁epine	-10583
▁Nifedipine	-10584
sat	-10585
▁UE	-10586
ubate	-10587
▁anter	-10588
▁communic	-10589
▁neurogenic	-10590
▁exacerbations	-10591
gram	-10592
▁NEG	-10593
▁pri	-10594
▁HOUR	-10595
▁hemi	-10596
ochrom	-10597
▁exclude	-10598
▁resistance	-10599
120	-10600
orad	-10601
▁Onc	-10602
▁Scale	-10603
▁surface	-10604
axa	-10605
▁Red	-10606
verbally	-10607
▁Completed	-10608
▁optimization	-10609
Ce	-10610
izes	-10611
rits	-10612
pelvic	-10613
Contact	-10614
▁adnexal	-10615
▁bupropion	-10616
▁resultant	-10617
▁plt	-10618
▁70/30	-10619
▁hemis	-10620
sychotic	-10621
▁interest	-10622
▁segmental	-10623
GYN	-10624
XII	-10625
gab	-10626
EPOCH	-10627
▁Open	-10628
▁aureus	-10629
▁stooling	-10630
▁Bacteremia	-10631
▁Dyslipidemia	-10632
cx	-10633
pha	-10634
▁PNC	-10635
erium	-10636
▁STOP	-10637
otemia	-10638
▁FOLFOX	-10639
peramide	-10640
-70	-10641
▁Pump	-10642
▁intent	-10643
▁ondansetron	-10644
ums	-10645
▁Ma	-10646
irect	-10647
▁dilt	-10648
formulary	-10649
▁Persistent	-10650
▁hemiparesis	-10651
perdal	-10652
▁Sister	-10653
▁identify	-10654
ada	-10655
yph	-10656
-130	-10657
ovan	-10658
▁900	-10659
▁Report	-10660
▁threat	-10661
▁upcoming	-10662
irl	-10663
▁Aut	-10664
▁fasting	-10665
▁accepted	-10666
Sulfonamide	-10667
▁Bradycardia	-10668
Act	-10669
▁agg	-10670
▁sCHF	-10671
▁Protonix	-10672
▁Aspiration	-10673
Afib	-10674
▁Sleep	-10675
▁children	-10676
▁correction	-10677
▁healthcare	-10678
BET	-10679
▁cour	-10680
angitis	-10681
▁Neutrop	-10682
▁comparison	-10683
pret	-10684
▁acetab	-10685
vern	-10686
▁3.0	-10687
▁strike	-10688
Diarrhea	-10689
▁optimized	-10690
Ur	-10691
odopa	-10692
toxic	-10693
▁Denied	-10694
orrhagia	-10695
▁ileal	-10696
▁plain	-10697
gabalin	-10698
diarrhea	-10699
trex	-10700
lingual	-10701
▁fine	-10702
▁95	-10703
iagnosed	-10704
▁Complete	-10705
▁settings	-10706
▁Clinically	-10707
Transitional	-10708
ief	-10709
▁FSBG	-10710
▁splin	-10711
▁FLU	-10712
▁Hip	-10713
▁TUR	-10714
▁bit	-10715
evaluate	-10716
▁diplopia	-10717
enoxaparin	-10718
▁straining	-10719
▁administer	-10720
▁epinephrine	-10721
prol	-10722
▁Sever	-10723
▁decub	-10724
▁equivalent	-10725
▁facilitate	-10726
Hyponatremia	-10727
urea	-10728
▁SVE	-10729
alyzed	-10730
ijuana	-10731
illing	-10732
avicular	-10733
▁monthly	-10734
▁nightly	-10735
▁proteinuria	-10736
-24	-10737
oux	-10738
restor	-10739
▁digits	-10740
Surgical	-10741
▁Hepatic	-10742
▁Bleeding	-10743
lix	-10744
▁err	-10745
BETES	-10746
uting	-10747
▁shot	-10748
akfast	-10749
antine	-10750
▁fullness	-10751
▁revascular	-10752
▁vegetations	-10753
accum	-10754
losec	-10755
▁resc	-10756
▁Strep	-10757
▁diagnoses	-10758
▁NEB	-10759
erves	-10760
▁track	-10761
▁Strength	-10762
oce	-10763
▁delaying	-10764
▁sickle	-10765
▁propofol	-10766
▁vitamins	-10767
luconazole	-10768
▁cyclosporine	-10769
sec	-10770
▁SSRI	-10771
segment	-10772
Salmeterol	-10773
▁enalapril	-10774
▁increases	-10775
uco	-10776
oclon	-10777
▁Celexa	-10778
▁characterized	-10779
SOB	-10780
-43.	-10781
RIEF	-10782
▁PAD	-10783
▁1.1.	-10784
▁emot	-10785
▁kayex	-10786
▁young	-10787
razadone	-10788
yanocobalamin	-10789
▁Sim	-10790
▁timing	-10791
▁Colitis	-10792
▁subsided	-10793
▁Advil	-10794
ressure	-10795
********	-10796
soriasis	-10797
▁attached	-10798
Thrombocytopenia	-10799
knife	-10800
acillin	-10801
actuation	-10802
▁Methadone	-10803
▁labetolol	-10804
rac	-10805
-120	-10806
▁Imp	-10807
▁fut	-10808
month	-10809
▁smaller	-10810
Actuation	-10811
placement	-10812
▁blockers	-10813
Per	-10814
▁neutroph	-10815
▁prompted	-10816
eve	-10817
▁(7	-10818
inder	-10819
odine	-10820
▁betab	-10821
itoneum	-10822
▁subtle	-10823
▁Causing	-10824
▁affected	-10825
▁epistaxis	-10826
▁heartbeat	-10827
▁der	-10828
vessel	-10829
▁Nadolol	-10830
▁ursodiol	-10831
▁hepatocellular	-10832
▁Dist	-10833
inuted	-10834
omagnes	-10835
optimal	-10836
▁additionally	-10837
ger	-10838
adaxa	-10839
▁ligation	-10840
▁endoscopic	-10841
irth	-10842
legm	-10843
▁Dev	-10844
▁MVR	-10845
▁Rif	-10846
▁calm	-10847
armacy	-10848
ousing	-10849
▁trops	-10850
▁20,	-10851
▁Base	-10852
▁trip	-10853
▁seven	-10854
▁insight	-10855
▁squeezing	-10856
▁NEW	-10857
rophysiology	-10858
13	-10859
▁Nor	-10860
▁VIT	-10861
arcoma	-10862
▁color	-10863
osterone	-10864
▁PROBLEM	-10865
▁diagonal	-10866
▁stockings	-10867
▁Noncontributory	-10868
▁ileum	-10869
icc	-10870
reh	-10871
▁pil	-10872
▁tapering	-10873
ocular	-10874
▁azotemia	-10875
▁idiopathic	-10876
▁gemcitabine	-10877
-23	-10878
▁lock	-10879
▁FoLIC	-10880
▁guiac	-10881
▁Breath	-10882
▁pureed	-10883
▁keeping	-10884
▁intention	-10885
▁neuropathic	-10886
▁OUT	-10887
▁elo	-10888
▁tech	-10889
edication	-10890
▁Colorectal	-10891
HF	-10892
PHY	-10893
ried	-10894
▁Roux	-10895
▁plug	-10896
ofovir	-10897
isplatin	-10898
▁Fracture	-10899
▁MEDICATION	-10900
otri	-10901
acral	-10902
idual	-10903
renatal	-10904
▁Resumed	-10905
▁glycemic	-10906
▁loperamide	-10907
▁arthroplasty	-10908
MAG	-10909
▁Knee	-10910
RANDOM	-10911
epress	-10912
▁peritonitis	-10913
=============	-10914
MV	-10915
tro	-10916
▁qPM	-10917
bicort	-10918
▁allog	-10919
▁thresh	-10920
rt	-10921
▁blu	-10922
▁16,	-10923
▁NOS	-10924
▁gynecologic	-10925
▁suppressive	-10926
umes	-10927
▁Dox	-10928
▁eth	-10929
▁Ritux	-10930
▁celexa	-10931
▁Fentanyl	-10932
▁Cefpodoxime	-10933
▁transiently	-10934
▁Suc	-10935
▁dise	-10936
▁vagal	-10937
▁neural	-10938
astomotic	-10939
▁cultured	-10940
500	-10941
▁LM	-10942
opsy	-10943
▁Pat	-10944
▁Riv	-10945
ODone	-10946
▁value	-10947
▁Allerg	-10948
▁window	-10949
▁dramatically	-10950
CX	-10951
oe	-10952
SBP	-10953
BsAg	-10954
inger	-10955
▁rein	-10956
metabolic	-10957
yberknife	-10958
▁Maintained	-10959
▁sensitivity	-10960
▁representing	-10961
-2.2	-10962
-4.9	-10963
robial	-10964
▁amphet	-10965
▁collected	-10966
▁angioedema	-10967
▁wished	-10968
ycl	-10969
▁vig	-10970
▁clamped	-10971
▁Hemoglobin	-10972
▁Cyanocobalamin	-10973
▁LMP	-10974
▁nit	-10975
irizine	-10976
▁unsure	-10977
▁demonstrates	-10978
Un	-10979
EDS	-10980
▁Grade	-10981
▁grafts	-10982
▁BACTERIA	-10983
▁terminal	-10984
▁prosthesis	-10985
▁inconsistent	-10986
▁mEq	-10987
▁Staple	-10988
▁elderly	-10989
-26	-10990
ICD	-10991
ATHY	-10992
▁hope	-10993
▁pock	-10994
▁Pulmon	-10995
▁Whipple	-10996
▁slurred	-10997
▁paranoia	-10998
YRO	-10999
▁deh	-11000
▁Within	-11001
▁fitted	-11002
▁gradual	-11003
senna	-11004
▁Several	-11005
▁atovaquone	-11006
SP	-11007
▁DAY	-11008
▁preop	-11009
attered	-11010
▁atrophy	-11011
▁raising	-11012
▁crackers	-11013
OLST	-11014
rica	-11015
ground	-11016
▁BRIEF	-11017
▁coiling	-11018
▁foci	-11019
▁repaired	-11020
▁Compazine	-11021
▁Subsequent	-11022
▁retinopathy	-11023
mn	-11024
▁_	-11025
-1.5	-11026
Urinary	-11027
▁density	-11028
▁evident	-11029
▁signific	-11030
▁presyncope	-11031
ortriptyline	-11032
▁alternating	-11033
eril	-11034
▁PSYCH	-11035
▁Oriented	-11036
▁contusion	-11037
▁threshold	-11038
arse	-11039
▁naf	-11040
EMENT	-11041
▁teams	-11042
▁pneumo	-11043
▁account	-11044
▁breakdown	-11045
▁---	-11046
onstit	-11047
▁uremia	-11048
▁limiting	-11049
▁Breakfast	-11050
▁Calc	-11051
▁nystatin	-11052
▁independent	-11053
200	-11054
▁Trig	-11055
▁exact	-11056
▁Lamictal	-11057
▁Trazodone	-11058
▁normalization	-11059
▁(1.	-11060
▁CPR	-11061
▁pulling	-11062
▁cholangiogram	-11063
gl	-11064
LAR	-11065
▁bending	-11066
▁positional	-11067
▁Anastomotic	-11068
HR	-11069
-27	-11070
sin	-11071
▁Aerosol	-11072
▁fibromyalgia	-11073
▁dext	-11074
etirizine	-11075
▁feedings	-11076
▁NU	-11077
pons	-11078
▁90'	-11079
▁Week	-11080
efully	-11081
▁blind	-11082
▁bottle	-11083
▁opened	-11084
eficiency	-11085
/100	-11086
▁70%	-11087
▁Muc	-11088
▁artif	-11089
▁Exacerb	-11090
▁bronchiectasis	-11091
ISM	-11092
ura	-11093
▁Ip	-11094
▁sxs	-11095
▁anast	-11096
Elevated	-11097
▁epicardial	-11098
▁thoracotomy	-11099
▁94	-11100
▁Vaginal	-11101
▁deferves	-11102
▁permanent	-11103
▁oropharynx	-11104
PASE	-11105
▁Emb	-11106
ymbal	-11107
▁Current	-11108
▁Minimal	-11109
▁hemisph	-11110
▁maximum	-11111
▁preceding	-11112
▁EXTREMITIES	-11113
nit	-11114
oud	-11115
-107	-11116
erob	-11117
▁30%	-11118
▁div	-11119
▁TIBC	-11120
▁mmHg	-11121
orption	-11122
advanced	-11123
▁Codeine	-11124
operfusion	-11125
▁understand	-11126
STIC	-11127
▁NCAT	-11128
▁gland	-11129
▁Prenatal	-11130
abig	-11131
cardi	-11132
▁Obes	-11133
▁LIPASE	-11134
▁circulation	-11135
▁practitioner	-11136
▁coron	-11137
▁Doxycycline	-11138
▁documentation	-11139
▁endocrinologist	-11140
rypt	-11141
▁bulb	-11142
▁prev	-11143
▁staging	-11144
▁Diabetic	-11145
▁transitioning	-11146
ilt	-11147
zol	-11148
▁103	-11149
▁Our	-11150
▁Cdiff	-11151
ymbalta	-11152
▁Device	-11153
▁instrum	-11154
▁bisacodyl	-11155
▁hepatologist	-11156
Pres	-11157
▁RML	-11158
-13.3	-11159
istic	-11160
▁lyme	-11161
▁hemolytic	-11162
▁1.0.	-11163
▁description	-11164
-3.1	-11165
DIAC	-11166
▁PND	-11167
▁pCO	-11168
▁___)	-11169
MAGING	-11170
Yellow	-11171
▁chamber	-11172
▁mobilize	-11173
▁painless	-11174
HCV	-11175
▁syringe	-11176
▁spondylo	-11177
▁tizanidine	-11178
has	-11179
▁Ir	-11180
viral	-11181
▁crypt	-11182
▁Miralax	-11183
▁containing	-11184
▁interpreter	-11185
-83	-11186
▁190	-11187
▁1.6.	-11188
▁WHAT	-11189
▁Rivar	-11190
▁behavi	-11191
▁decide	-11192
▁inhalation	-11193
▁Hydralazine	-11194
▁malformation	-11195
▁former	-11196
▁sexual	-11197
▁becoming	-11198
▁Neuropathy	-11199
ni	-11200
orus	-11201
▁#*28	-11202
Resume	-11203
▁estimated	-11204
▁marijuana	-11205
▁Administration	-11206
▁didn	-11207
heresis	-11208
▁Postop	-11209
▁flomax	-11210
▁According	-11211
▁Esophageal	-11212
Ad	-11213
RCA	-11214
3-23	-11215
▁bus	-11216
-13.0	-11217
block	-11218
▁triam	-11219
atelets	-11220
▁Bromide	-11221
▁parents	-11222
▁urosepsis	-11223
loy	-11224
▁Add	-11225
▁larg	-11226
▁tampons	-11227
▁Famotidine	-11228
▁Orthostatics	-11229
▁<=	-11230
▁amitriptyline	-11231
▁*90	-11232
▁Hum	-11233
▁ICH	-11234
iosis	-11235
▁olig	-11236
▁supra	-11237
▁powder	-11238
charged	-11239
ancreatic	-11240
▁phenobarbital	-11241
Sh	-11242
▁Bu	-11243
-2.9	-11244
uced	-11245
▁SVC	-11246
▁1200	-11247
itched	-11248
ificial	-11249
▁lasted	-11250
▁Developed	-11251
ORAC	-11252
yond	-11253
▁128	-11254
bacter	-11255
▁Fetal	-11256
▁muscles	-11257
▁nearest	-11258
▁alcoholism	-11259
▁anaesthesia	-11260
▁IF	-11261
anax	-11262
anol	-11263
▁HFA	-11264
otype	-11265
Pl	-11266
ASE	-11267
▁My	-11268
▁XS	-11269
iatica	-11270
▁Awake	-11271
▁parap	-11272
▁wants	-11273
▁seroma	-11274
▁finally	-11275
▁various	-11276
▁carefully	-11277
▁Clonazepam	-11278
FU	-11279
opos	-11280
▁IMAGING	-11281
▁preeclampsia	-11282
▁AFB	-11283
▁Bone	-11284
▁inversions	-11285
▁hypoperfusion	-11286
pex	-11287
-13.4	-11288
▁looking	-11289
▁residuals	-11290
▁carboplatin	-11291
▁ulcerations	-11292
oring	-11293
▁attach	-11294
▁ketones	-11295
▁mesalamine	-11296
▁toxicology	-11297
:*1	-11298
ETY	-11299
-135	-11300
ergy	-11301
ilis	-11302
-13.1	-11303
agrel	-11304
▁Male	-11305
▁paced	-11306
▁lipitor	-11307
▁uptitrate	-11308
-32	-11309
▁6)	-11310
▁FD	-11311
atran	-11312
▁tree	-11313
▁immune	-11314
▁tachyp	-11315
anesthesia	-11316
aptoglobin	-11317
▁penicillin	-11318
Ns	-11319
INR	-11320
▁PVR	-11321
viron	-11322
▁virus	-11323
▁histor	-11324
▁interpret	-11325
SV	-11326
eu	-11327
-7.0	-11328
OLIC	-11329
▁5000	-11330
▁tail	-11331
otripsy	-11332
▁Problem	-11333
▁450	-11334
▁Lat	-11335
▁Case	-11336
idneys	-11337
▁sober	-11338
▁cavern	-11339
▁peripro	-11340
▁original	-11341
▁prostatectomy	-11342
-13.5	-11343
uster	-11344
▁vaccine	-11345
4)	-11346
▁sob	-11347
Psych	-11348
▁>70,	-11349
▁gangl	-11350
▁larger	-11351
▁tiotropium	-11352
▁sarcoidosis	-11353
mit	-11354
ophag	-11355
▁thrush	-11356
▁microcytic	-11357
▁(-	-11358
▁RP	-11359
EtOH	-11360
prox	-11361
▁NAS	-11362
▁brush	-11363
▁hallux	-11364
guarding	-11365
orsening	-11366
grap	-11367
onis	-11368
▁SPR	-11369
activ	-11370
iriva	-11371
▁HgbA	-11372
▁mutation	-11373
▁delivered	-11374
▁hematocrits	-11375
▁Pe	-11376
VASC	-11377
▁10,	-11378
roxil	-11379
urine	-11380
asonal	-11381
▁packs	-11382
▁phlegm	-11383
▁regard	-11384
▁hyperglycemic	-11385
MIBI	-11386
chest	-11387
▁RUQUS	-11388
▁rituximab	-11389
ids	-11390
▁EB	-11391
-6.0	-11392
▁mig	-11393
▁Free	-11394
otherm	-11395
previous	-11396
▁noxious	-11397
▁clavicle	-11398
3-28	-11399
▁Long	-11400
▁antid	-11401
lebitis	-11402
▁Rheumat	-11403
part	-11404
emics	-11405
rical	-11406
ORACIC	-11407
▁stoma	-11408
▁Cephalexin	-11409
▁Finasteride	-11410
▁application	-11411
▁(30	-11412
▁fal	-11413
-12.9	-11414
actam	-11415
isome	-11416
pleen	-11417
▁Staph	-11418
▁neoplasm	-11419
▁separate	-11420
▁exercises	-11421
▁accompanied	-11422
copy	-11423
▁Surgeon	-11424
occlusive	-11425
▁65	-11426
▁66	-11427
olac	-11428
▁SPRY	-11429
▁scant	-11430
adroxil	-11431
▁absent	-11432
▁series	-11433
▁PLASTIC	-11434
▁Extra	-11435
ophobia	-11436
▁aspirated	-11437
▁recovering	-11438
▁NVI	-11439
▁beyond	-11440
illectomy	-11441
▁addiction	-11442
▁pup	-11443
▁CARDIAC	-11444
▁certainly	-11445
▁repeatedly	-11446
▁sufficient	-11447
▁foul	-11448
urring	-11449
abigatran	-11450
▁brachial	-11451
▁TRANSITIONS	-11452
Ig	-11453
MAD	-11454
APAP	-11455
▁Only	-11456
▁foram	-11457
▁artifact	-11458
▁diffusely	-11459
▁recommends	-11460
burn	-11461
▁55%	-11462
▁FSG	-11463
apping	-11464
▁bilat	-11465
▁sheet	-11466
▁handed	-11467
▁Transitioned	-11468
▁trac	-11469
ICATION	-11470
▁element	-11471
▁sustain	-11472
▁Pseudomonas	-11473
aft	-11474
▁bu	-11475
-110	-11476
oves	-11477
▁Uro	-11478
▁Meropenem	-11479
▁nafcillin	-11480
▁steatosis	-11481
▁pathologic	-11482
▁effectively	-11483
light	-11484
▁ribs	-11485
untary	-11486
▁zoster	-11487
▁kidneys	-11488
▁PTX	-11489
▁Then	-11490
▁sulf	-11491
▁100.4	-11492
▁Ancef	-11493
onisamide	-11494
-23.	-11495
▁mat	-11496
▁canc	-11497
▁laxative	-11498
VED	-11499
associated	-11500
▁Nitroglycerin	-11501
▁Bic	-11502
▁ald	-11503
ureter	-11504
▁bland	-11505
agnesia	-11506
▁leaking	-11507
▁metatarsal	-11508
▁Obstructive	-11509
▁LUL	-11510
▁torsion	-11511
▁naproxen	-11512
▁*2	-11513
YROID	-11514
▁displ	-11515
▁vegetation	-11516
alan	-11517
▁MAP	-11518
▁lobes	-11519
▁stead	-11520
▁CHANGES	-11521
▁environ	-11522
▁Arthritis	-11523
▁Rivaroxaban	-11524
▁(8	-11525
Head	-11526
▁AFP	-11527
▁AVF	-11528
▁LIMA	-11529
▁RENAL	-11530
▁TraMAD	-11531
▁ectopic	-11532
icardipine	-11533
▁alprazolam	-11534
APN	-11535
POR	-11536
▁FeNa	-11537
cedure	-11538
atectomy	-11539
▁Glipizide	-11540
▁endocrinology	-11541
▁endometriosis	-11542
▁*20	-11543
▁pna	-11544
organ	-11545
invasive	-11546
▁bandage	-11547
▁nonfocal	-11548
▁vigorous	-11549
procedural	-11550
DER	-11551
▁Class	-11552
atadine	-11553
cardiac	-11554
'',	-11555
high	-11556
-13.6	-11557
lovir	-11558
▁bite	-11559
▁bout	-11560
▁microb	-11561
▁granulo	-11562
VH	-11563
inse	-11564
▁HAP	-11565
▁Imm	-11566
desis	-11567
▁purulence	-11568
▁Hypothyroid	-11569
▁dyslipidemia	-11570
En	-11571
▁7,	-11572
▁Musc	-11573
▁slip	-11574
▁soapy	-11575
agrelor	-11576
husband	-11577
ophagia	-11578
epileptic	-11579
▁drainable	-11580
▁pertinent	-11581
hydromorphone	-11582
wk	-11583
wks	-11584
▁FFS	-11585
benef	-11586
▁antip	-11587
hydramine	-11588
▁Chloride	-11589
▁ot	-11590
▁CRI	-11591
▁GCS	-11592
▁HIDA	-11593
avulan	-11594
▁scrub	-11595
junction	-11596
▁zyprexa	-11597
▁delusions	-11598
▁characterize	-11599
FS	-11600
▁60%	-11601
▁Epi	-11602
CONDA	-11603
idence	-11604
▁yourself	-11605
▁occlusive	-11606
▁TRANSITION	-11607
▁gentamicin	-11608
▁LUQ	-11609
▁SNF	-11610
▁sten	-11611
neumonia	-11612
▁Patients	-11613
omagnesemia	-11614
sol	-11615
▁Sat	-11616
-12.8	-11617
▁Here	-11618
CONDARY	-11619
▁plaque	-11620
▁guidance	-11621
dys	-11622
▁Eff	-11623
▁Factor	-11624
▁Community	-11625
LIP	-11626
▁sad	-11627
▁apex	-11628
▁assay	-11629
randial	-11630
▁Prelim	-11631
▁Furthermore	-11632
▁Osteoarthritis	-11633
/1	-11634
▁rx	-11635
afety	-11636
▁manag	-11637
▁Diskus	-11638
OTHORACIC	-11639
▁Confirmed	-11640
▁CARDIOTHORACIC	-11641
IE	-11642
▁LOR	-11643
▁noct	-11644
ochond	-11645
▁Every	-11646
▁mailed	-11647
▁friends	-11648
▁trialed	-11649
▁deviation	-11650
▁Exacerbation	-11651
#4	-11652
▁(>	-11653
erals	-11654
▁Less	-11655
▁vague	-11656
aternal	-11657
▁ectopy	-11658
▁fundus	-11659
ynophagia	-11660
▁vasopress	-11661
OMA	-11662
▁lav	-11663
▁impul	-11664
▁Splint	-11665
ituitary	-11666
▁volumes	-11667
▁glaucoma	-11668
▁epileptic	-11669
▁hypercarbic	-11670
▁yrs	-11671
▁trials	-11672
ups	-11673
-44.	-11674
▁ETT	-11675
▁Mil	-11676
▁100)	-11677
terene	-11678
▁MOLST	-11679
▁reduc	-11680
▁DIABETES	-11681
▁regiment	-11682
eterminate	-11683
PS	-11684
safe	-11685
▁RBBB	-11686
▁sept	-11687
irlfriend	-11688
▁hypodensity	-11689
▁fr	-11690
▁ho	-11691
▁EPI	-11692
▁seal	-11693
ilities	-11694
▁eloped	-11695
▁housing	-11696
▁douching	-11697
▁receives	-11698
ca	-11699
POD	-11700
nos	-11701
oxan	-11702
prov	-11703
illus	-11704
▁Tacro	-11705
▁supports	-11706
▁downtrend	-11707
▁exchanged	-11708
▁erythromycin	-11709
RRH	-11710
zac	-11711
▁GT	-11712
▁ACD	-11713
▁Mel	-11714
acidosis	-11715
▁attacks	-11716
▁tension	-11717
▁managing	-11718
▁afterload	-11719
▁conjunctiv	-11720
▁intraabdominal	-11721
▁132	-11722
▁oil	-11723
RIAL	-11724
admitted	-11725
▁Bedtime	-11726
▁hyperin	-11727
▁manifest	-11728
▁diaphragm	-11729
▁Encouraged	-11730
-12.5	-11731
▁APAP	-11732
▁NSVT	-11733
ominant	-11734
Lev	-11735
▁5%	-11736
-12.7	-11737
▁PVCs	-11738
▁Event	-11739
▁achieve	-11740
▁sotalol	-11741
▁inserted	-11742
▁pruritis	-11743
▁alkalosis	-11744
▁cardioembolic	-11745
▁sees	-11746
▁Tamiflu	-11747
▁crushed	-11748
▁lamictal	-11749
▁net	-11750
-13.8	-11751
▁comes	-11752
▁SY	-11753
▁nt	-11754
-1.3	-11755
▁14-	-11756
▁More	-11757
▁Verap	-11758
ductive	-11759
▁donepezil	-11760
-35	-11761
ocin	-11762
risk	-11763
▁POB	-11764
▁foll	-11765
▁Nasal	-11766
▁captopril	-11767
▁electrograp	-11768
-12.6	-11769
▁goes	-11770
▁waxing	-11771
▁Staples	-11772
▁gravity	-11773
segmental	-11774
▁Delirium	-11775
▁clipping	-11776
RAT	-11777
XIS	-11778
ocor	-11779
ople	-11780
▁mye	-11781
▁uric	-11782
▁Spiriva	-11783
▁allowing	-11784
▁polypectomy	-11785
1.5*	-11786
▁35%	-11787
▁diam	-11788
▁wire	-11789
▁Oxygen	-11790
▁codeine	-11791
▁GC	-11792
udine	-11793
openic	-11794
▁bases	-11795
▁gangrene	-11796
▁weightbearing	-11797
▁3.2	-11798
▁31.	-11799
▁ESB	-11800
▁leaf	-11801
urethral	-11802
▁Ascites	-11803
oratadine	-11804
▁Ipratropium	-11805
MED	-11806
held	-11807
▁ESBL	-11808
▁arch	-11809
▁okay	-11810
▁knees	-11811
oacidosis	-11812
▁steadily	-11813
>>	-11814
▁Neb	-11815
Neuro	-11816
ophosph	-11817
▁euvolemia	-11818
ventilation	-11819
▁significance	-11820
ACH	-11821
▁#*90	-11822
thorax	-11823
▁Rapid	-11824
uloplasty	-11825
▁decisions	-11826
▁adenopathy	-11827
▁hyponatremic	-11828
-22	-11829
olin	-11830
▁FIB	-11831
▁arthro	-11832
▁variable	-11833
▁essential	-11834
▁FK	-11835
▁dye	-11836
▁Volume	-11837
▁Fluconazole	-11838
▁lithotripsy	-11839
xor	-11840
▁AED	-11841
▁ann	-11842
washed	-11843
▁Hearts	-11844
▁Mitral	-11845
▁spleen	-11846
▁Diffuse	-11847
▁desired	-11848
▁lymphedema	-11849
▁OD	-11850
▁MVA	-11851
▁manip	-11852
▁hyperthyroidism	-11853
sied	-11854
▁turned	-11855
glycemics	-11856
ocalcemia	-11857
▁SECONDARY	-11858
▁Sulfameth	-11859
▁intravascular	-11860
urex	-11861
▁2.9	-11862
▁Sil	-11863
▁stump	-11864
▁needle	-11865
▁interven	-11866
▁pronator	-11867
▁personality	-11868
▁relationship	-11869
▁(9	-11870
afil	-11871
▁pren	-11872
▁NASAL	-11873
▁ovary	-11874
acement	-11875
▁calcul	-11876
▁Amylase	-11877
▁flexible	-11878
▁exhibited	-11879
Trimethoprim	-11880
VERY	-11881
iquid	-11882
▁ramus	-11883
▁Verapamil	-11884
appropriate	-11885
▁constipated	-11886
Ex	-11887
▁Cyst	-11888
ansion	-11889
▁futher	-11890
▁partner	-11891
Con	-11892
free	-11893
oncent	-11894
kalemic	-11895
motility	-11896
▁barbitrt	-11897
▁bnzodzpn	-11898
▁neurontin	-11899
prit	-11900
tebral	-11901
oposide	-11902
▁Placed	-11903
▁lavage	-11904
▁ILD	-11905
▁MET	-11906
▁wbc	-11907
▁Extr	-11908
▁OBHx	-11909
▁Clinical	-11910
▁combined	-11911
▁conjunction	-11912
▁lightheaded	-11913
▁6,	-11914
ower	-11915
▁#3,	-11916
▁levo	-11917
▁tracheobronch	-11918
ira	-11919
Back	-11920
oden	-11921
▁ray	-11922
▁1.7.	-11923
▁CONT	-11924
▁ducts	-11925
iscence	-11926
ylephrine	-11927
▁Continues	-11928
▁calcified	-11929
OSA	-11930
▁YOU	-11931
▁pyl	-11932
range	-11933
oquine	-11934
▁formed	-11935
▁HSM	-11936
▁ADHD	-11937
▁alpha	-11938
▁energy	-11939
▁Diuretics	-11940
▁Vent	-11941
▁ment	-11942
▁fluor	-11943
▁holid	-11944
▁habits	-11945
▁leakage	-11946
▁mucosal	-11947
▁sarcoma	-11948
▁azathioprine	-11949
TND	-11950
▁3:	-11951
-2.8	-11952
rion	-11953
▁94%	-11954
colax	-11955
ephrine	-11956
hetamine	-11957
icagrelor	-11958
▁Extremity	-11959
▁intensity	-11960
▁desaturations	-11961
oam	-11962
tox	-11963
▁DT	-11964
etim	-11965
▁horm	-11966
ounced	-11967
▁green	-11968
▁infiltration	-11969
lter	-11970
▁Ear	-11971
▁HOURS	-11972
▁presumably	-11973
HI	-11974
emas	-11975
ofib	-11976
▁EMG	-11977
▁caud	-11978
▁whom	-11979
cystic	-11980
▁Source	-11981
▁benzos	-11982
irolimus	-11983
▁behaviors	-11984
▁chronicity	-11985
▁Pulmonology	-11986
mar	-11987
▁arous	-11988
▁intram	-11989
▁Inactive	-11990
▁cortical	-11991
▁TS	-11992
▁32.	-11993
vorin	-11994
▁Hours	-11995
▁suppl	-11996
▁Biliary	-11997
▁spondylosis	-11998
OUS	-11999
▁pts	-12000
afate	-12001
olute	-12002
▁panic	-12003
▁radiograph	-12004
▁antiplatelet	-12005
▁boot	-12006
▁peric	-12007
ulcolax	-12008
▁refills	-12009
▁incarcerated	-12010
▁levetiracetam	-12011
:*60	-12012
▁ASD	-12013
▁Neur	-12014
▁ONCE	-12015
THYROID	-12016
▁rounds	-12017
▁responding	-12018
▁rheumatologist	-12019
▁atherosclerotic	-12020
/90	-12021
done	-12022
▁liberal	-12023
▁Venlafaxine	-12024
FEW	-12025
ivocal	-12026
▁survey	-12027
▁cluster	-12028
▁klebsiella	-12029
▁consumption	-12030
oms	-12031
ogene	-12032
▁Tric	-12033
increased	-12034
▁broadened	-12035
UDI	-12036
-180	-12037
etan	-12038
▁33.	-12039
▁STA	-12040
▁ANCA	-12041
logram	-12042
▁ahead	-12043
▁101.5,	-12044
Insomnia	-12045
titrated	-12046
yel	-12047
Diet	-12048
▁80'	-12049
IDEMIA	-12050
discus	-12051
▁phase	-12052
▁concom	-12053
ynamically	-12054
▁Malnutrition	-12055
▁electrographic	-12056
▁pedal	-12057
▁xrays	-12058
▁pocket	-12059
acquired	-12060
▁Gastric	-12061
ero	-12062
pot	-12063
-1.4	-12064
▁#1.	-12065
▁wait	-12066
▁unsafe	-12067
azithromycin	-12068
▁suppository	-12069
YC	-12070
)).	-12071
cade	-12072
hood	-12073
▁5.5	-12074
UDIES	-12075
pinal	-12076
▁Cream	-12077
▁PERRLA	-12078
▁qdaily	-12079
▁delerium	-12080
▁doxazosin	-12081
▁disturbance	-12082
OULD	-12083
▁Dob	-12084
-14.0	-12085
isual	-12086
▁member	-12087
▁vomited	-12088
▁evidenced	-12089
▁thickness	-12090
▁hydroxyzine	-12091
ERCP	-12092
▁Required	-12093
▁neurosurgeon	-12094
▁rhabdomyolysis	-12095
RIL	-12096
▁OK	-12097
▁RI	-12098
MEALS	-12099
acted	-12100
elong	-12101
posed	-12102
▁Foot	-12103
tensor	-12104
▁Mildly	-12105
▁enemas	-12106
▁auditory	-12107
▁dilutional	-12108
ride	-12109
ucovorin	-12110
▁chemistry	-12111
▁preparing	-12112
▁550	-12113
ithium	-12114
▁hemoc	-12115
▁Finally	-12116
▁warrant	-12117
▁interfer	-12118
where	-12119
briety	-12120
▁binder	-12121
▁predis	-12122
▁bronchial	-12123
▁declining	-12124
▁junctional	-12125
▁antipsychotic	-12126
▁MAC	-12127
-13.7	-12128
▁#*10	-12129
▁ADLs	-12130
▁GRAM	-12131
etimibe	-12132
▁suboptimal	-12133
▁gestational	-12134
▁progressing	-12135
PED	-12136
NSTEMI	-12137
ignment	-12138
▁interc	-12139
▁Neupogen	-12140
▁feelings	-12141
▁LORazepam	-12142
▁Procedure	-12143
▁phosphate	-12144
▁noncontributory	-12145
gy	-12146
bet	-12147
acol	-12148
▁VTE	-12149
neuro	-12150
▁1.8.	-12151
▁adam	-12152
▁Ulcerative	-12153
XI	-12154
Int	-12155
elve	-12156
iton	-12157
▁ADD	-12158
▁OMFS	-12159
▁fire	-12160
▁indisc	-12161
diuresis	-12162
▁Husband	-12163
▁dehiscence	-12164
▁86	-12165
-300	-12166
mild	-12167
▁penile	-12168
▁residue	-12169
▁seeking	-12170
▁meetings	-12171
▁prenatal	-12172
▁suicidality	-12173
▁mycophenolate	-12174
===============	-12175
mid	-12176
▁mamm	-12177
▁rese	-12178
▁motiv	-12179
▁extend	-12180
ractable	-12181
▁culprit	-12182
▁success	-12183
compliant	-12184
▁supposed	-12185
▁scattered	-12186
▁defervesced	-12187
-82	-12188
▁cocci	-12189
▁ganglia	-12190
▁initally	-12191
▁sobriety	-12192
▁Wellbutrin	-12193
▁transitional	-12194
rash	-12195
small	-12196
weigh	-12197
▁NTND	-12198
consider	-12199
▁autopsy	-12200
▁habitus	-12201
wp	-12202
fic	-12203
▁epig	-12204
▁school	-12205
▁struck	-12206
▁bolused	-12207
▁finalized	-12208
▁objective	-12209
oy	-12210
▁AEDs	-12211
▁Intr	-12212
ivalpro	-12213
▁fields	-12214
▁phalan	-12215
ompensated	-12216
▁disorders	-12217
▁strictures	-12218
had	-12219
▁oc	-12220
▁PAF	-12221
▁sem	-12222
ergic	-12223
nosides	-12224
▁bumped	-12225
▁plasma	-12226
▁Brother	-12227
▁93	-12228
cyte	-12229
▁woke	-12230
▁aside	-12231
▁catar	-12232
▁outlet	-12233
▁dofetilide	-12234
▁Coagulopathy	-12235
mer	-12236
▁GB	-12237
▁PDA	-12238
enses	-12239
▁milk	-12240
▁perior	-12241
▁valpro	-12242
▁decubitus	-12243
▁therapies	-12244
Hypo	-12245
relim	-12246
▁aver	-12247
arenal	-12248
▁doesn	-12249
calciferol	-12250
▁Normotensive	-12251
▁HP	-12252
ared	-12253
soas	-12254
▁pcp	-12255
▁0.00	-12256
▁NICU	-12257
ofetil	-12258
▁EVERY	-12259
▁specimen	-12260
IEN	-12261
raft	-12262
▁allo	-12263
calcium	-12264
▁inhaled	-12265
LIPIDEMIA	-12266
▁apixiban	-12267
▁paralysis	-12268
▁135	-12269
▁ctx	-12270
▁lowered	-12271
▁biopsied	-12272
▁happened	-12273
▁Encourage	-12274
mod	-12275
pal	-12276
▁FT	-12277
▁25%	-12278
▁SMA	-12279
▁worsens	-12280
▁budesonide	-12281
▁circumflex	-12282
▁suggestion	-12283
▁flud	-12284
▁Yeast	-12285
▁intrap	-12286
ographic	-12287
▁eventual	-12288
Her	-12289
-8.7	-12290
gast	-12291
▁96.	-12292
▁pAF	-12293
▁RESP	-12294
▁mechan	-12295
cinolone	-12296
▁Partial	-12297
▁guardian	-12298
▁challenge	-12299
▁rheumatoid	-12300
ken	-12301
imolol	-12302
ubicin	-12303
▁corne	-12304
▁scope	-12305
▁rescue	-12306
obiliary	-12307
▁Bacteri	-12308
▁blister	-12309
adherence	-12310
▁remember	-12311
▁inferolateral	-12312
-8.8	-12313
foot	-12314
▁#2.	-12315
▁(-)	-12316
▁TBI	-12317
orolac	-12318
▁treaters	-12319
sensitivity	-12320
eling	-12321
hemat	-12322
▁tape	-12323
my	-12324
Acd	-12325
iphen	-12326
iplatin	-12327
▁native	-12328
zetimibe	-12329
ophosphatemia	-12330
LIMA	-12331
▁Facial	-12332
▁lifelong	-12333
▁Tolerating	-12334
▁mandibular	-12335
▁saturating	-12336
▁2.0.	-12337
▁delt	-12338
▁viol	-12339
derall	-12340
struct	-12341
▁cranial	-12342
▁captured	-12343
▁depakote	-12344
#7	-12345
▁GFR	-12346
provoked	-12347
▁replace	-12348
dependent	-12349
▁ambulance	-12350
▁comminuted	-12351
▁>3	-12352
▁rr	-12353
asol	-12354
OLVED	-12355
▁beats	-12356
▁laser	-12357
aliplatin	-12358
▁Seizures	-12359
▁restenosis	-12360
▁Cardiologist	-12361
ipap	-12362
ridor	-12363
▁contin	-12364
▁sequel	-12365
▁macrobid	-12366
▁antidepress	-12367
reg	-12368
▁bp	-12369
odil	-12370
▁alter	-12371
Transaminitis	-12372
ciprofloxacin	-12373
▁interrogation	-12374
▁91	-12375
mmHg	-12376
▁epi	-12377
ortion	-12378
plastic	-12379
sthetic	-12380
▁UricAcd	-12381
OMY	-12382
▁EFW	-12383
▁big	-12384
▁qpm	-12385
▁Palp	-12386
▁cataract	-12387
▁Linezolid	-12388
goal	-12389
▁Aden	-12390
▁0.125	-12391
▁Platelets	-12392
▁pronounced	-12393
axel	-12394
▁3.3	-12395
▁flexor	-12396
▁pleuro	-12397
chloroquine	-12398
MIA	-12399
One	-12400
▁LH	-12401
-2.3	-12402
arna	-12403
▁-==	-12404
▁OCP	-12405
▁That	-12406
▁Valve	-12407
▁adjuv	-12408
▁Topical	-12409
sennosides	-12410
▁maxillary	-12411
▁dysmotility	-12412
▁Max	-12413
▁pall	-12414
ofibrate	-12415
▁sedative	-12416
▁managment	-12417
▁menorrhagia	-12418
-143	-12419
▁wwp	-12420
▁GNRs	-12421
collar	-12422
▁Again	-12423
▁gener	-12424
prazole	-12425
▁Alcoholic	-12426
▁Mechanical	-12427
▁hemoconcent	-12428
ms	-12429
tp	-12430
iden	-12431
▁TYPE	-12432
▁UPEP	-12433
▁story	-12434
▁tonic	-12435
imazole	-12436
▁fourth	-12437
▁Lithium	-12438
ivalproex	-12439
lobulinemia	-12440
▁Mes	-12441
insulin	-12442
▁atrium	-12443
omatosis	-12444
▁trachea	-12445
▁screened	-12446
fin	-12447
▁>>	-12448
▁Or	-12449
oxia	-12450
poly	-12451
ounter	-12452
iectomy	-12453
▁calcane	-12454
▁prodrome	-12455
pinephrine	-12456
▁association	-12457
▁lacerations	-12458
▁escitalopram	-12459
▁OPAT	-12460
▁******	-12461
▁SHOULD	-12462
▁inhouse	-12463
▁Cefazolin	-12464
▁Diagnostic	-12465
▁stimulation	-12466
▁instrumentation	-12467
INA	-12468
▁Lim	-12469
▁bub	-12470
encies	-12471
▁reint	-12472
▁starts	-12473
▁scripts	-12474
▁Decadron	-12475
▁NEGATIVE	-12476
▁phlegmon	-12477
icus	-12478
ifer	-12479
odic	-12480
▁FHT	-12481
▁HRs	-12482
-14.1	-12483
asion	-12484
▁heavier	-12485
operitoneum	-12486
omen	-12487
▁Cal	-12488
▁FIN	-12489
▁pet	-12490
thromb	-12491
▁points	-12492
▁adjuvant	-12493
▁DEPRESSION	-12494
MN	-12495
▁#4	-12496
3-22	-12497
▁LCX	-12498
▁conduit	-12499
▁mapping	-12500
▁rolling	-12501
▁cellcept	-12502
▁diverting	-12503
▁hypercoagulable	-12504
leg	-12505
meg	-12506
▁cather	-12507
▁2.5-3.5	-12508
▁augment	-12509
▁Atypical	-12510
▁Biopsies	-12511
▁papillary	-12512
weightbearing	-12513
▁communication	-12514
onat	-12515
▁proBNP	-12516
▁exposed	-12517
▁requesting	-12518
▁Ax	-12519
▁Slight	-12520
▁dopamine	-12521
▁structures	-12522
▁pansensitive	-12523
▁recommending	-12524
Ul	-12525
iary	-12526
omide	-12527
▁NIDDM	-12528
▁Intact	-12529
lycerides	-12530
▁acetabular	-12531
▁RF	-12532
nitol	-12533
▁bulk	-12534
▁tiny	-12535
▁rinse	-12536
▁interim	-12537
due	-12538
PATIENT	-12539
ogeneous	-12540
▁akinesis	-12541
▁spotting	-12542
enofibrate	-12543
▁Symptomatic	-12544
inac	-12545
ONARY	-12546
urnal	-12547
▁Down	-12548
▁Mood	-12549
▁email	-12550
▁Silver	-12551
▁Cellcept	-12552
▁dialyzed	-12553
▁evolving	-12554
▁emotional	-12555
▁heartburn	-12556
USE	-12557
▁IU	-12558
-2.7	-12559
esia	-12560
fuse	-12561
▁Myelo	-12562
emporal	-12563
olution	-12564
▁Obesity	-12565
▁trazadone	-12566
arthroplasty	-12567
GNS	-12568
-45.	-12569
▁qid	-12570
scopy	-12571
▁transport	-12572
▁withdrawl	-12573
ansoprazole	-12574
▁hydrocodone	-12575
▁Tab	-12576
riptan	-12577
▁samples	-12578
▁Vitamins	-12579
▁disorgan	-12580
▁equivocal	-12581
....	-12582
PHYLA	-12583
▁worr	-12584
inical	-12585
▁colic	-12586
▁split	-12587
▁loculated	-12588
ojejunostomy	-12589
▁indeterminate	-12590
osa	-12591
rup	-12592
ooth	-12593
▁TSICU	-12594
▁cecum	-12595
▁twelve	-12596
▁express	-12597
▁climbing	-12598
oriconazole	-12599
▁paroxetine	-12600
vada	-12601
▁pop	-12602
uteal	-12603
▁GPCs	-12604
▁agrees	-12605
▁reaccum	-12606
▁probability	-12607
PDA	-12608
CHOP	-12609
MMUN	-12610
ilic	-12611
ercise	-12612
lecain	-12613
▁Appeared	-12614
-18.	-12615
-8.9	-12616
▁137	-12617
▁Expl	-12618
ividual	-12619
------------	-12620
amm	-12621
▁Pan	-12622
ioned	-12623
toast	-12624
▁TURP	-12625
metric	-12626
▁Gently	-12627
▁sleeve	-12628
pharmacy	-12629
benzaprine	-12630
RIC	-12631
acy	-12632
loid	-12633
oxyl	-12634
▁myc	-12635
▁noon	-12636
▁Reple	-12637
▁toprol	-12638
▁avoiding	-12639
▁outweigh	-12640
THYROIDISM	-12641
▁premature	-12642
▁worrisome	-12643
▁###	-12644
▁133	-12645
▁END	-12646
▁Very	-12647
PHYLAXIS	-12648
andibular	-12649
roparesis	-12650
▁language	-12651
productive	-12652
▁Intermitt	-12653
▁cyberknife	-12654
▁calcification	-12655
men	-12656
▁68	-12657
▁78	-12658
-2.5	-12659
amivir	-12660
▁allev	-12661
▁FINDING	-12662
▁Macrobid	-12663
#4,	-12664
▁pO	-12665
cent	-12666
just	-12667
▁HCG	-12668
▁log	-12669
▁pip	-12670
▁slowed	-12671
iprazole	-12672
▁coordinate	-12673
iD	-12674
rati	-12675
arate	-12676
inant	-12677
▁HELD	-12678
▁Pack	-12679
▁Colon	-12680
▁lytic	-12681
▁Septic	-12682
▁biceps	-12683
▁prescribing	-12684
▁(<	-12685
▁gut	-12686
▁inacc	-12687
▁Advised	-12688
▁phenylephrine	-12689
3-4	-12690
▁85	-12691
▁AI	-12692
-8.6	-12693
▁PTC	-12694
▁mecl	-12695
▁ancef	-12696
neurysm	-12697
▁STUDIES	-12698
▁Swallow	-12699
▁calorie	-12700
▁compress	-12701
carbazepine	-12702
▁ceftazidime	-12703
-21	-12704
PROM	-12705
axol	-12706
▁(5)	-12707
▁MRG	-12708
▁shin	-12709
arabine	-12710
oxazole	-12711
▁sooner	-12712
▁Rifaximin	-12713
▁dedicated	-12714
▁haptoglobin	-12715
▁Ophthalmology	-12716
END	-12717
LOG	-12718
▁126	-12719
▁PVT	-12720
▁Coun	-12721
omatic	-12722
▁1,000	-12723
▁Hepat	-12724
▁linear	-12725
sthoracic	-12726
▁atherosclerosis	-12727
▁Sa	-12728
-8.5	-12729
mega	-12730
onset	-12731
idoderm	-12732
▁FIBRIL	-12733
▁Malign	-12734
▁hypere	-12735
▁predominantly	-12736
-9.0	-12737
/50)	-12738
▁20%	-12739
▁TAH	-12740
▁STIs	-12741
arging	-12742
▁stridor	-12743
▁motility	-12744
ABP	-12745
▁2%	-12746
▁129	-12747
▁bis	-12748
odenal	-12749
▁Folate	-12750
▁compreh	-12751
lecainide	-12752
▁Switched	-12753
▁dopplers	-12754
▁relapsed	-12755
-5.5	-12756
uity	-12757
▁ALB	-12758
▁Hemorrhage	-12759
▁speciation	-12760
▁Sug	-12761
▁cla	-12762
▁fis	-12763
-109*	-12764
▁real	-12765
▁wake	-12766
▁answer	-12767
▁pancre	-12768
eltamivir	-12769
ofen	-12770
▁Nur	-12771
▁ost	-12772
onism	-12773
▁Card	-12774
▁trun	-12775
ometry	-12776
▁sound	-12777
▁steps	-12778
osamide	-12779
▁waning	-12780
▁rotator	-12781
extension	-12782
hor	-12783
ctor	-12784
otec	-12785
▁IABP	-12786
ilepsy	-12787
ulsion	-12788
▁BIPAP	-12789
ralgias	-12790
▁tachypneic	-12791
whe	-12792
▁01	-12793
ules	-12794
-13.9	-12795
bhoff	-12796
▁bands	-12797
▁bathe	-12798
onatate	-12799
▁parathy	-12800
▁wearing	-12801
previously	-12802
▁rhinorrhea	-12803
PAM	-12804
▁HB	-12805
ulations	-12806
▁Neurological	-12807
PROP	-12808
▁fear	-12809
▁Tract	-12810
ultiple	-12811
asthenia	-12812
▁Restart	-12813
▁Hypernatremia	-12814
▁conversations	-12815
-108	-12816
umex	-12817
▁Sym	-12818
articular	-12819
▁enteritis	-12820
▁inaccurate	-12821
▁valacyclovir	-12822
spec	-12823
▁util	-12824
▁dural	-12825
▁screw	-12826
▁skull	-12827
▁SQH	-12828
ocomp	-12829
▁DCCV	-12830
ethacin	-12831
isplaced	-12832
▁dynamic	-12833
olization	-12834
▁edematous	-12835
▁nitrofurantoin	-12836
▁---------------	-12837
▁knows	-12838
planted	-12839
▁fibrin	-12840
▁joints	-12841
▁sticks	-12842
narcotic	-12843
▁distant	-12844
▁talking	-12845
▁speciated	-12846
Day	-12847
Init	-12848
spect	-12849
▁bruit	-12850
▁walks	-12851
▁aborted	-12852
WE	-12853
OPH	-12854
▁tent	-12855
▁admits	-12856
▁obtuse	-12857
▁sports	-12858
▁phalanx	-12859
▁Suspected	-12860
▁Synthroid	-12861
▁Tiotropium	-12862
LV	-12863
raf	-12864
▁(20	-12865
▁(40	-12866
▁81,	-12867
xapro	-12868
▁Gluc	-12869
drawal	-12870
▁clamp	-12871
▁pupil	-12872
▁Crohns	-12873
▁cyclob	-12874
ocephalic	-12875
▁myopathy	-12876
▁Neutropenia	-12877
▁FIBRILLATION	-12878
▁colonization	-12879
▁preadmission	-12880
plen	-12881
elines	-12882
▁hemic	-12883
genital	-12884
▁Dissol	-12885
▁hyperd	-12886
▁homeless	-12887
▁sustaining	-12888
▁vaccination	-12889
eded	-12890
▁BUE	-12891
-12.4	-12892
icept	-12893
▁osteo	-12894
▁acetate	-12895
▁consequ	-12896
▁meclizine	-12897
▁GJ	-12898
rier	-12899
▁ICP	-12900
▁Fish	-12901
▁___/	-12902
▁deliri	-12903
▁concomitant	-12904
▁Hemodynamically	-12905
▁fri	-12906
35	-12907
ape	-12908
coag	-12909
▁#*1	-12910
▁Study	-12911
▁Confused	-12912
▁Neurontin	-12913
▁vestibular	-12914
lit	-12915
ators	-12916
▁synt	-12917
▁watch	-12918
▁dominant	-12919
▁recurred	-12920
▁pituitary	-12921
▁wa	-12922
Oste	-12923
▁FNA	-12924
▁ask	-12925
▁chose	-12926
▁copious	-12927
discussed	-12928
▁alternate	-12929
Hypotension	-12930
▁cystectomy	-12931
▁Information	-12932
▁ketoacidosis	-12933
IVF	-12934
MOD	-12935
rete	-12936
▁3.7	-12937
▁MDR	-12938
ulent	-12939
▁CORE	-12940
azePAM	-12941
▁Spinal	-12942
▁Parkins	-12943
▁reveals	-12944
-9.1	-12945
▁ACID	-12946
SITIVE	-12947
▁Group	-12948
endocrine	-12949
▁repeating	-12950
▁nicardipine	-12951
▁unsteadiness	-12952
▁opacification	-12953
LC	-12954
▁ALP	-12955
▁IUD	-12956
based	-12957
pepsia	-12958
▁heard	-12959
▁refle	-12960
▁Guaiac	-12961
▁skills	-12962
▁FINDINGS	-12963
▁intrinsic	-12964
▁unrelated	-12965
▁3.8	-12966
▁34.	-12967
▁dyst	-12968
breath	-12969
▁blast	-12970
▁STABLE	-12971
▁candid	-12972
▁cramps	-12973
▁Migraines	-12974
irid	-12975
etics	-12976
▁table	-12977
PROPion	-12978
▁Maalox	-12979
▁normotension	-12980
ranon	-12981
▁pubic	-12982
besartan	-12983
▁thinking	-12984
▁arrythmia	-12985
▁Rheumatoid	-12986
▁subsegmental	-12987
▁220	-12988
▁PCO	-12989
▁PMR	-12990
enafil	-12991
leptal	-12992
ulocyte	-12993
▁combine	-12994
▁lumpectomy	-12995
▁macrocytic	-12996
▁Preliminary	-12997
▁periprosthetic	-12998
NCE	-12999
mir	-13000
▁GO	-13001
▁IT	-13002
this	-13003
urom	-13004
▁(500	-13005
▁What	-13006
▁harv	-13007
▁occured	-13008
▁Ointment	-13009
ianal	-13010
▁opin	-13011
usting	-13012
▁exped	-13013
▁diameter	-13014
▁Scheduled	-13015
-<1	-13016
▁GBS	-13017
▁HOD	-13018
volog	-13019
acheal	-13020
urgent	-13021
▁walked	-13022
▁crystal	-13023
▁readings	-13024
▁Oxycontin	-13025
72	-13026
JD	-13027
▁CVL	-13028
▁States	-13029
ocentesis	-13030
▁Reportedly	-13031
▁oxybutynin	-13032
CTA	-13033
▁vi	-13034
thalm	-13035
▁MEAS	-13036
hesive	-13037
▁Tumor	-13038
▁puffs	-13039
▁playing	-13040
▁pyridium	-13041
omeprazole	-13042
▁ClonazePAM	-13043
▁Enterococcus	-13044
▁cyclobenzaprine	-13045
Straw	-13046
prior	-13047
▁LTCS	-13048
siness	-13049
albumin	-13050
▁Holter	-13051
▁caring	-13052
lecranon	-13053
▁exudate	-13054
▁Clonidine	-13055
▁attempting	-13056
▁hypothyroid	-13057
Cs	-13058
▁>9	-13059
▁LA	-13060
3-29	-13061
Diff	-13062
HYPER	-13063
utive	-13064
ctions	-13065
istant	-13066
▁ambien	-13067
artments	-13068
eningeal	-13069
▁Dissolve	-13070
CRP	-13071
RESS	-13072
expl	-13073
▁Oil	-13074
▁(12)	-13075
▁ling	-13076
▁Anion	-13077
▁majority	-13078
▁parenchymal	-13079
6)	-13080
inge	-13081
▁SCT	-13082
-14.2	-13083
rites	-13084
▁trim	-13085
▁Close	-13086
umarate	-13087
▁crampy	-13088
▁debrided	-13089
▁resumption	-13090
axil	-13091
▁SAB	-13092
arring	-13093
▁Micro	-13094
▁cords	-13095
▁supracl	-13096
▁Intubated	-13097
▁Afterwards	-13098
▁continually	-13099
Ext	-13100
Cipro	-13101
▁Still	-13102
▁write	-13103
▁creams	-13104
▁herpes	-13105
▁depending	-13106
▁immunocomp	-13107
▁surge	-13108
▁tissues	-13109
▁Cytology	-13110
▁Problems	-13111
▁Rh	-13112
▁VI	-13113
-170	-13114
-8.4	-13115
zole	-13116
▁Ery	-13117
▁Off	-13118
▁abnl	-13119
▁bare	-13120
ospice	-13121
sister	-13122
▁Eryth	-13123
▁Spoke	-13124
vaginal	-13125
▁assault	-13126
ildenafil	-13127
▁MEASURES	-13128
▁contains	-13129
▁solution	-13130
42	-13131
ux	-13132
EEG	-13133
▁sn	-13134
PORT	-13135
Plan	-13136
▁Benz	-13137
▁redo	-13138
Pelvis	-13139
▁Triam	-13140
omediast	-13141
osarcoma	-13142
▁background	-13143
Gout	-13144
Mild	-13145
kley	-13146
ores	-13147
tach	-13148
iment	-13149
▁Site	-13150
actrim	-13151
apular	-13152
▁glycol	-13153
▁Another	-13154
▁Hodgkin	-13155
Increased	-13156
Prescribed	-13157
▁PROPHYLAXIS	-13158
==============	-13159
FM	-13160
2),	-13161
LAN	-13162
NCER	-13163
▁Mod	-13164
▁pace	-13165
▁Never	-13166
▁Endocrin	-13167
▁enlarging	-13168
▁nocturnal	-13169
▁uptrending	-13170
▁environment	-13171
▁microvascular	-13172
▁3.6	-13173
▁arg	-13174
▁(100	-13175
▁Creon	-13176
▁chance	-13177
▁locked	-13178
▁Hydroxy	-13179
ofenadine	-13180
▁dabigatran	-13181
Sc	-13182
Call	-13183
portun	-13184
▁brady	-13185
▁STARTED	-13186
▁aspirate	-13187
▁bronchus	-13188
▁zolpidem	-13189
▁BuPROPion	-13190
▁*1*	-13191
▁Ddx	-13192
▁101.4	-13193
▁coags	-13194
▁frust	-13195
▁tears	-13196
ulating	-13197
▁citrate	-13198
▁staying	-13199
amination	-13200
▁hypotherm	-13201
▁atraumatic	-13202
▁controlling	-13203
▁Mycophenolate	-13204
▁ES	-13205
-7.3	-13206
▁WAS	-13207
▁lis	-13208
pylori	-13209
▁GynHx	-13210
▁supine	-13211
▁refrain	-13212
▁chemorad	-13213
▁maternal	-13214
▁dangerous	-13215
.)(	-13216
EUM	-13217
ILL	-13218
seal	-13219
▁COL	-13220
▁conv	-13221
▁lept	-13222
▁casts	-13223
▁guide	-13224
▁instruct	-13225
▁anastomotic	-13226
ganc	-13227
▁3.4	-13228
pyema	-13229
▁INFE	-13230
▁dysp	-13231
▁ending	-13232
▁instit	-13233
▁menstru	-13234
▁pathway	-13235
▁protect	-13236
albuterol	-13237
▁Diagnoses	-13238
▁Worsening	-13239
▁Geriatrics	-13240
▁substantial	-13241
▁RT	-13242
▁145	-13243
▁45%	-13244
▁700	-13245
XIETY	-13246
▁Loss	-13247
▁disk	-13248
father	-13249
▁flight	-13250
▁humeral	-13251
▁Leukopenia	-13252
anal	-13253
▁131	-13254
▁fro	-13255
Blood	-13256
igmata	-13257
stroke	-13258
▁birth	-13259
▁empty	-13260
feeding	-13261
▁xarelto	-13262
▁hemostasis	-13263
/24	-13264
PRO	-13265
▁87	-13266
▁TPA	-13267
Foley	-13268
▁Epis	-13269
▁fold	-13270
▁chief	-13271
▁Sclera	-13272
▁orally	-13273
▁thinks	-13274
ophlebitis	-13275
▁Dizziness	-13276
▁Hemolysis	-13277
▁Initiated	-13278
▁fluctuance	-13279
▁unprovoked	-13280
metronidazole	-13281
▁degeneration	-13282
graf	-13283
ucle	-13284
upiv	-13285
▁6.5	-13286
▁argu	-13287
onscopy	-13288
opathic	-13289
▁menses	-13290
drainage	-13291
▁forehead	-13292
WTH	-13293
▁EPO	-13294
▁gold	-13295
▁plts	-13296
▁Abilify	-13297
▁cefadroxil	-13298
▁girlfriend	-13299
trochanteric	-13300
▁simethicone	-13301
Sub	-13302
▁84	-13303
-22.	-13304
▁undert	-13305
▁flexure	-13306
▁Appointment	-13307
UMIN	-13308
▁CDI	-13309
▁Gait	-13310
erobic	-13311
▁vault	-13312
▁ATRIAL	-13313
▁dressed	-13314
▁waiting	-13315
▁disturbances	-13316
▁cholecystostomy	-13317
ENIA	-13318
trig	-13319
▁raise	-13320
▁goiter	-13321
▁hemang	-13322
▁lipids	-13323
▁opinion	-13324
▁individual	-13325
▁Hydrocodone	-13326
▁betablocker	-13327
▁photophobia	-13328
▁schizoaffective	-13329
▁NR	-13330
▁Torso	-13331
Dyspnea	-13332
▁Ongoing	-13333
▁Aneurysm	-13334
▁Presentation	-13335
▁LOF	-13336
ungin	-13337
ancial	-13338
iclovir	-13339
▁CANCER	-13340
▁bioprost	-13341
▁plastics	-13342
aret	-13343
lipt	-13344
tein	-13345
▁EOM	-13346
ardia	-13347
phone	-13348
sitis	-13349
gether	-13350
▁Immun	-13351
▁GROWTH	-13352
▁sciatica	-13353
▁together	-13354
▁angiopathy	-13355
▁drowsiness	-13356
TIA	-13357
▁pi	-13358
imate	-13359
▁curve	-13360
▁Plastics	-13361
▁intractable	-13362
▁epo	-13363
fluid	-13364
▁worn	-13365
▁Finger	-13366
NEGATIVE	-13367
iplinary	-13368
▁maximal	-13369
▁shelter	-13370
▁providing	-13371
▁scheduling	-13372
▁wellbutrin	-13373
▁anticoagulant	-13374
▁122	-13375
orenal	-13376
▁aches	-13377
▁input	-13378
▁malle	-13379
▁plasm	-13380
iatrist	-13381
▁bubble	-13382
▁opportun	-13383
▁ampullary	-13384
▁tolerates	-13385
PL	-13386
Gyn	-13387
HSS	-13388
2-25	-13389
▁Sur	-13390
▁ves	-13391
ospor	-13392
total	-13393
▁tubs	-13394
▁fatig	-13395
▁acuity	-13396
▁ALBUMIN	-13397
▁isolation	-13398
▁Latanoprost	-13399
▁hypervolemic	-13400
Ca	-13401
VSS	-13402
arcan	-13403
odular	-13404
▁Pleur	-13405
umbness	-13406
▁Managed	-13407
▁Question	-13408
▁stigmata	-13409
▁mucositis	-13410
▁compensated	-13411
▁catherization	-13412
Pro	-13413
▁134	-13414
bowel	-13415
▁ator	-13416
▁GROUP	-13417
▁Spray	-13418
▁STATEMENT	-13419
▁ABX	-13420
ushes	-13421
▁VIII	-13422
▁cisplatin	-13423
amethoxazole	-13424
hemia	-13425
thick	-13426
▁ACET	-13427
▁bruits	-13428
▁sclera	-13429
omectomy	-13430
▁alendronate	-13431
▁anticipated	-13432
▁TMP	-13433
▁boy	-13434
rinone	-13435
▁Ruled	-13436
▁conducted	-13437
▁synthetic	-13438
▁artificial	-13439
▁pleurodesis	-13440
▁readmission	-13441
▁encephalitis	-13442
▁Recommendations	-13443
gi	-13444
12*	-13445
lets	-13446
▁HER	-13447
▁SMV	-13448
▁coagulase	-13449
Sat	-13450
Yes	-13451
aid	-13452
▁ank	-13453
yclic	-13454
rontal	-13455
rocytosis	-13456
▁thalamic	-13457
▁odynophagia	-13458
car	-13459
know	-13460
▁ddx	-13461
CHIAT	-13462
▁Shock	-13463
▁admis	-13464
▁mania	-13465
▁fioricet	-13466
▁suffering	-13467
-----------	-13468
▁Mononitrate	-13469
▁qD	-13470
lage	-13471
▁TMA	-13472
▁Tox	-13473
▁cav	-13474
▁17.2	-13475
▁Done	-13476
▁people	-13477
▁courses	-13478
Pulmonary	-13479
▁nauseous	-13480
amphetamine	-13481
CUS	-13482
WBC	-13483
▁UGI	-13484
▁gyn	-13485
ommend	-13486
▁Added	-13487
olamine	-13488
amazepine	-13489
oxycontin	-13490
▁cavernous	-13491
▁manipulation	-13492
▁9:	-13493
-9.2	-13494
▁mth	-13495
ACUTE	-13496
sheet	-13497
STOLIC	-13498
emoral	-13499
▁Multif	-13500
▁Norvasc	-13501
▁bandemia	-13502
▁dextrose	-13503
▁extensor	-13504
▁Risperdal	-13505
▁impaction	-13506
▁MV	-13507
HOLD	-13508
eses	-13509
▁1.9.	-13510
oblast	-13511
▁manic	-13512
Syncope	-13513
erclage	-13514
iridans	-13515
▁Prograf	-13516
▁bathing	-13517
▁relieve	-13518
▁Naproxen	-13519
▁daughters	-13520
▁structure	-13521
▁toileting	-13522
▁fluctuating	-13523
▁montelukast	-13524
▁104	-13525
▁HgA	-13526
▁hes	-13527
INARY	-13528
trexone	-13529
▁STOPPED	-13530
occipital	-13531
▁Microcytic	-13532
▁coronaries	-13533
▁perspective	-13534
vemir	-13535
weeks	-13536
▁fish	-13537
▁tick	-13538
▁sense	-13539
▁modest	-13540
▁classic	-13541
▁invasion	-13542
▁rigidity	-13543
▁gestation	-13544
▁hematomas	-13545
▁calcifications	-13546
▁7)	-13547
riva	-13548
▁WEEK	-13549
unclear	-13550
▁drowsy	-13551
▁pleurex	-13552
▁Acidosis	-13553
▁training	-13554
▁olecranon	-13555
▁Colchicine	-13556
POS	-13557
▁mom	-13558
iitis	-13559
▁TFTs	-13560
italin	-13561
rograde	-13562
▁Proteus	-13563
metoprolol	-13564
▁Silverlon	-13565
▁proceeded	-13566
▁Impression	-13567
ochromatosis	-13568
▁Diverticulitis	-13569
yg	-13570
▁box	-13571
▁HEAD	-13572
Plavix	-13573
ystatin	-13574
▁Change	-13575
elevated	-13576
▁Acetate	-13577
▁umbilicus	-13578
▁indiscretion	-13579
#5	-13580
unit	-13581
▁maneu	-13582
▁chloride	-13583
▁arousable	-13584
▁reactions	-13585
▁guaifenesin	-13586
knee	-13587
cough	-13588
enhanc	-13589
▁fibula	-13590
oplication	-13591
▁Breathing	-13592
▁dysplasia	-13593
▁voluntary	-13594
▁Transfused	-13595
oag	-13596
▁PLE	-13597
▁hom	-13598
seous	-13599
initis	-13600
ontine	-13601
▁optic	-13602
irectal	-13603
▁ruling	-13604
avulanic	-13605
▁intense	-13606
▁reading	-13607
displaced	-13608
▁Anterior	-13609
infectious	-13610
▁duodenitis	-13611
▁metoclopramide	-13612
Pos	-13613
osen	-13614
▁().	-13615
-12.3	-13616
-14.4	-13617
-32.0	-13618
levant	-13619
▁volar	-13620
▁septum	-13621
▁exhibit	-13622
▁HOSPITALI	-13623
▁Metronidazole	-13624
>10	-13625
VAR	-13626
luct	-13627
▁118	-13628
▁ARDS	-13629
▁Puff	-13630
▁shaft	-13631
prandial	-13632
▁clarify	-13633
▁Epilepsy	-13634
▁document	-13635
▁pericardi	-13636
▁radiologist	-13637
▁microbiology	-13638
WN	-13639
del	-13640
▁>2	-13641
▁kyph	-13642
▁itself	-13643
ellation	-13644
▁brushings	-13645
▁organomegaly	-13646
bed	-13647
wave	-13648
▁127	-13649
▁aff	-13650
▁0.08	-13651
▁AVMs	-13652
▁itch	-13653
ething	-13654
omicidal	-13655
▁maneuver	-13656
vancomycin	-13657
2/	-13658
PND	-13659
mented	-13660
▁perip	-13661
ibility	-13662
▁patchy	-13663
▁episodic	-13664
▁Bariatric	-13665
▁abruption	-13666
▁stimulator	-13667
prn	-13668
AIDS	-13669
▁CLIN	-13670
licate	-13671
▁Amitriptyline	-13672
▁Hypercalcemia	-13673
HE	-13674
NRT	-13675
-9.3	-13676
alcet	-13677
▁doub	-13678
▁smelling	-13679
▁congenital	-13680
▁liberalized	-13681
▁normoactive	-13682
▁immunocomprom	-13683
▁64	-13684
aces	-13685
ipril	-13686
issue	-13687
llium	-13688
orbic	-13689
uresed	-13690
▁relax	-13691
▁reluct	-13692
▁Myeloma	-13693
▁anastam	-13694
▁spiriva	-13695
▁tremulous	-13696
▁ticagrelor	-13697
▁Montelukast	-13698
▁76	-13699
eval	-13700
▁35.	-13701
▁Spec	-13702
▁duplicate	-13703
▁exudative	-13704
▁hydrothorax	-13705
▁Cardiomyopathy	-13706
ovac	-13707
▁3.9	-13708
▁QRS	-13709
▁fle	-13710
▁mag	-13711
oxicet	-13712
uscular	-13713
▁Maleate	-13714
▁hypoglycemics	-13715
7)	-13716
moid	-13717
perg	-13718
▁jer	-13719
ATELY	-13720
renox	-13721
▁100,	-13722
▁Milk	-13723
▁PMNs	-13724
▁FLUID	-13725
▁oment	-13726
ologous	-13727
▁latter	-13728
▁Ferritin	-13729
▁subtotal	-13730
▁advancing	-13731
osynephrine	-13732
▁hypercarbia	-13733
▁4-	-13734
▁Ach	-13735
-14.3	-13736
▁POLY	-13737
pending	-13738
▁Migraine	-13739
▁flexeril	-13740
▁rhinitis	-13741
▁abstinence	-13742
mis	-13743
▁lay	-13744
▁sut	-13745
rotum	-13746
▁widely	-13747
▁Complex	-13748
▁Studies	-13749
▁genital	-13750
▁lotions	-13751
omeningeal	-13752
▁ventricles	-13753
▁presentations	-13754
▁benzodiazepine	-13755
CG	-13756
Hct	-13757
▁124	-13758
▁175	-13759
▁Var	-13760
-14.6	-13761
psych	-13762
▁40-4	-13763
▁bouts	-13764
▁arteritis	-13765
▁capillary	-13766
▁occurring	-13767
▁Eventually	-13768
▁hypoventilation	-13769
aria	-13770
vant	-13771
cence	-13772
▁100'	-13773
▁50-5	-13774
▁pedis	-13775
requent	-13776
▁override	-13777
▁confirming	-13778
KE	-13779
pop	-13780
___.	-13781
idol	-13782
▁DJD	-13783
▁Men	-13784
▁QOD	-13785
▁lar	-13786
▁Test	-13787
▁inpt	-13788
▁readd	-13789
▁Append	-13790
ensities	-13791
▁Rituxan	-13792
▁elevate	-13793
mentioned	-13794
MEDI	-13795
ibly	-13796
▁<10	-13797
▁ABI	-13798
-33.1	-13799
▁meant	-13800
▁noting	-13801
▁peptic	-13802
▁things	-13803
▁derange	-13804
▁prostatic	-13805
phosphamide	-13806
▁differentiated	-13807
▁transformation	-13808
▁EBL	-13809
▁eut	-13810
▁engage	-13811
▁multid	-13812
zolamide	-13813
▁injected	-13814
▁mandible	-13815
▁Cholecyst	-13816
mt	-13817
XRT	-13818
RACT	-13819
ners	-13820
▁cig	-13821
▁nam	-13822
ieving	-13823
rocardiac	-13824
▁Pressure	-13825
Metastatic	-13826
▁predominance	-13827
▁pancreatectomy	-13828
bre	-13829
▁1-	-13830
▁wk	-13831
▁Cre	-13832
ibody	-13833
oquin	-13834
▁topir	-13835
itching	-13836
▁acknow	-13837
▁dobhoff	-13838
▁diseases	-13839
▁nitrites	-13840
initiation	-13841
▁Substance	-13842
▁myomectomy	-13843
Prot	-13844
▁STD	-13845
iline	-13846
ommun	-13847
ulair	-13848
▁Gent	-13849
▁subg	-13850
▁Drops	-13851
▁false	-13852
razosin	-13853
▁IMMEDI	-13854
▁reinfor	-13855
▁terazosin	-13856
-31	-13857
adju	-13858
▁NTG	-13859
toler	-13860
▁mind	-13861
▁species	-13862
▁triceps	-13863
▁Transfer	-13864
▁cerclage	-13865
▁neuralgia	-13866
It	-13867
GBS	-13868
cult	-13869
▁105	-13870
brady	-13871
▁YOUR	-13872
aortic	-13873
▁Folic	-13874
▁nights	-13875
oriented	-13876
▁Recheck	-13877
▁locally	-13878
▁tearful	-13879
inacalcet	-13880
▁segments	-13881
▁radicular	-13882
▁prosthetic	-13883
▁retrograde	-13884
▁IMMEDIATELY	-13885
▁intermediate	-13886
#3.	-13887
▁Four	-13888
▁coll	-13889
▁carpal	-13890
▁cancelled	-13891
▁Discussion	-13892
▁psychosocial	-13893
new	-13894
full	-13895
oval	-13896
▁136	-13897
oderma	-13898
▁angle	-13899
▁spells	-13900
breather	-13901
▁Bedside	-13902
▁abrasion	-13903
▁Management	-13904
▁pregabalin	-13905
▁monotherapy	-13906
sx	-13907
▁Eu	-13908
opar	-13909
▁Epo	-13910
▁Eth	-13911
▁vod	-13912
▁wid	-13913
▁98.2	-13914
apsone	-13915
jected	-13916
▁Cover	-13917
▁holter	-13918
▁lotion	-13919
amivudine	-13920
▁attended	-13921
▁existing	-13922
ripiprazole	-13923
▁Erythromycin	-13924
UA	-13925
oic	-13926
▁jud	-13927
▁ton	-13928
iride	-13929
▁outflow	-13930
▁Effusion	-13931
▁properly	-13932
reliminary	-13933
LG	-13934
any	-13935
▁360	-13936
▁Mob	-13937
ertigo	-13938
▁Thank	-13939
covered	-13940
▁Pylori	-13941
▁demyel	-13942
▁empyema	-13943
▁proteus	-13944
▁Klonopin	-13945
▁bursitis	-13946
▁covering	-13947
▁aldactone	-13948
▁childhood	-13949
▁Concerning	-13950
▁Hypoglycemia	-13951
TCO	-13952
-46.	-13953
harm	-13954
▁LEG	-13955
Fevers	-13956
verbal	-13957
▁induc	-13958
▁soaked	-13959
ioplasty	-13960
▁triggers	-13961
▁INFECTION	-13962
▁Daptomycin	-13963
▁nondisplaced	-13964
▁Cyclobenzaprine	-13965
▁Hospitalization	-13966
▁Esc	-13967
▁AFVSS	-13968
▁SIGNS	-13969
▁crash	-13970
counter	-13971
ertiary	-13972
reening	-13973
▁Ambien	-13974
▁calTCO	-13975
▁imping	-13976
weakness	-13977
▁azithro	-13978
▁Ursodiol	-13979
▁proctitis	-13980
▁psoriasis	-13981
▁unilateral	-13982
▁Propranolol	-13983
▁correlation	-13984
▁hydroxyurea	-13985
PU	-13986
▁67	-13987
▁FDG	-13988
▁hence	-13989
▁clonus	-13990
▁manner	-13991
orubicin	-13992
▁Cranial	-13993
▁flushes	-13994
oblastoma	-13995
▁Complaint	-13996
▁deficient	-13997
CY	-13998
PCA	-13999
Panc	-14000
stri	-14001
▁(65	-14002
▁Pri	-14003
atriptan	-14004
▁flatten	-14005
▁PSYCHIAT	-14006
▁flushing	-14007
▁perianal	-14008
transplant	-14009
▁hypertonic	-14010
▁ultrasounds	-14011
ratherapeutic	-14012
-36	-14013
SMX	-14014
-400	-14015
▁SCC	-14016
▁Sal	-14017
impro	-14018
▁Deac	-14019
▁axis	-14020
cessful	-14021
▁verteb	-14022
▁flovent	-14023
▁minimum	-14024
▁apartment	-14025
▁historian	-14026
▁Tizanidine	-14027
▁Cholangitis	-14028
Sus	-14029
▁89	-14030
▁LN	-14031
▁hctz	-14032
▁plex	-14033
avirin	-14034
orphic	-14035
▁retri	-14036
chedule	-14037
▁Roxicet	-14038
▁coordinated	-14039
▁tonsillectomy	-14040
▁fundoplication	-14041
2-4	-14042
cere	-14043
▁115	-14044
Refer	-14045
▁Elev	-14046
▁Pelvis	-14047
▁VITALS	-14048
adjuvant	-14049
▁upright	-14050
▁Advanced	-14051
▁oropharyngeal	-14052
UG	-14053
▁BK	-14054
▁(0.	-14055
-33.8	-14056
-33.9	-14057
▁INRs	-14058
▁PSHx	-14059
Alcohol	-14060
▁financial	-14061
▁nauseated	-14062
▁sublingual	-14063
ACK	-14064
-14.5	-14065
illes	-14066
union	-14067
rometh	-14068
Initial	-14069
epiride	-14070
▁programs	-14071
ceftriaxone	-14072
▁Ophthalmic	-14073
▁nc	-14074
▁5.6	-14075
▁pol	-14076
treat	-14077
▁98.1	-14078
▁DAPT	-14079
▁moves	-14080
▁Consult	-14081
▁gluteal	-14082
▁mthdone	-14083
▁signfic	-14084
▁granulation	-14085
▁Escitalopram	-14086
▁chemoradiation	-14087
by	-14088
▁74	-14089
▁AIN	-14090
▁GAVE	-14091
itracin	-14092
▁abrupt	-14093
▁expand	-14094
aryngitis	-14095
iferative	-14096
▁dropping	-14097
▁muscular	-14098
▁mechanism	-14099
giene	-14100
▁fixator	-14101
▁granulom	-14102
▁insisted	-14103
▁stepdown	-14104
▁Transitions	-14105
▁indications	-14106
▁transurethral	-14107
bor	-14108
orc	-14109
-33.5	-14110
FINAL	-14111
aning	-14112
▁Gave	-14113
▁Iodine	-14114
acitracin	-14115
Clavulanic	-14116
▁Donepezil	-14117
cr	-14118
Held	-14119
Keep	-14120
ulla	-14121
▁138	-14122
▁PSC	-14123
▁ker	-14124
▁neb	-14125
-12.2	-14126
▁1.5,	-14127
▁letter	-14128
▁brainstem	-14129
▁malfunction	-14130
▁HYPERLIPIDEMIA	-14131
ik	-14132
00*	-14133
iuria	-14134
▁Apply	-14135
▁couns	-14136
ipating	-14137
▁Counsel	-14138
▁largest	-14139
▁immobility	-14140
▁polypharmacy	-14141
PIR	-14142
▁5.8	-14143
▁DFA	-14144
▁CALL	-14145
▁Tmax	-14146
▁blue	-14147
assive	-14148
rained	-14149
reactive	-14150
▁plugging	-14151
▁scarring	-14152
▁laxatives	-14153
>5	-14154
DE	-14155
DWB	-14156
locked	-14157
▁35-40	-14158
▁mobile	-14159
########	-14160
▁Magnesia	-14161
▁Nystatin	-14162
salmeterol	-14163
▁Calcitriol	-14164
ALL	-14165
▁caut	-14166
veolar	-14167
▁needing	-14168
▁expansion	-14169
▁hemisphere	-14170
▁responsible	-14171
▁nortriptyline	-14172
Go	-14173
12.	-14174
▁*50	-14175
▁Les	-14176
gravir	-14177
weekly	-14178
▁twins	-14179
yncopal	-14180
▁multiv	-14181
▁tricyclic	-14182
▁kayexalate	-14183
▁deconditioned	-14184
Fib	-14185
hex	-14186
▁ds	-14187
2-24	-14188
opic	-14189
▁(50	-14190
-34.2	-14191
▁NIHSS	-14192
▁varic	-14193
▁Briefly	-14194
▁placing	-14195
yx	-14196
Par	-14197
2-26	-14198
Intra	-14199
uated	-14200
▁AICD	-14201
▁Gall	-14202
rovent	-14203
▁pillow	-14204
▁Topamax	-14205
▁ketorolac	-14206
▁Epigastric	-14207
▁methimazole	-14208
▁oxaliplatin	-14209
▁4:	-14210
-7.5	-14211
▁FEV	-14212
▁BPPV	-14213
▁Lipid	-14214
▁Dobhoff	-14215
▁paracent	-14216
▁something	-14217
MMUNICATION	-14218
colonoscopy	-14219
▁voriconazole	-14220
▁heterogeneous	-14221
Os	-14222
3-1	-14223
▁1%	-14224
▁SHe	-14225
▁cre	-14226
▁juice	-14227
▁dislod	-14228
▁viable	-14229
▁corneal	-14230
VF	-14231
ICE	-14232
apto	-14233
▁38(	-14234
-33.6	-14235
ampin	-14236
▁Glyburide	-14237
▁irritable	-14238
▁dopplerable	-14239
▁rescheduled	-14240
▁leptomeningeal	-14241
-2.6	-14242
-9.4	-14243
PRNR	-14244
mine	-14245
▁Air	-14246
-33.2	-14247
▁CKMB	-14248
family	-14249
▁AVNRT	-14250
afungin	-14251
▁chosen	-14252
▁twisting	-14253
▁buproprion	-14254
▁discectomy	-14255
▁testicular	-14256
Out	-14257
ues	-14258
▁rt	-14259
▁Nod	-14260
▁Ver	-14261
▁TDWB	-14262
▁Fires	-14263
▁morph	-14264
▁usage	-14265
cussion	-14266
nalapril	-14267
▁Shoulder	-14268
▁Phenytoin	-14269
▁connected	-14270
▁Duloxetine	-14271
▁microscopic	-14272
▁Schizophrenia	-14273
/10	-14274
MRI	-14275
-21.	-14276
▁Rib	-14277
▁pmh	-14278
▁worth	-14279
CHRONIC	-14280
▁Ultram	-14281
▁author	-14282
▁mainly	-14283
▁occurs	-14284
▁topiramate	-14285
tric	-14286
▁pent	-14287
▁wore	-14288
▁Remove	-14289
▁respir	-14290
▁Adderall	-14291
▁punctate	-14292
-37	-14293
▁77	-14294
enil	-14295
▁LBP	-14296
asarc	-14297
▁easy	-14298
gester	-14299
▁stick	-14300
fcillin	-14301
▁abcess	-14302
▁affecting	-14303
▁autologous	-14304
Cell	-14305
iDAC	-14306
▁116	-14307
▁HRS	-14308
▁vul	-14309
▁glim	-14310
▁lose	-14311
OPATHY	-14312
iologic	-14313
▁saddle	-14314
acemaker	-14315
▁labwork	-14316
▁erosions	-14317
▁Urologist	-14318
▁aneurysms	-14319
▁mammogram	-14320
aneoplastic	-14321
▁paraspinal	-14322
ci	-14323
Ult	-14324
▁rrr	-14325
-33.3	-14326
-34.0	-14327
-34.3	-14328
TITIS	-14329
▁#*15	-14330
▁Prol	-14331
▁cock	-14332
helial	-14333
▁TRANS	-14334
▁Record	-14335
▁nephritis	-14336
▁Controlled	-14337
▁measurements	-14338
▁salpingectomy	-14339
▁supraclavicular	-14340
vena	-14341
▁1.4,	-14342
imaging	-14343
▁axilla	-14344
▁inform	-14345
radiation	-14346
▁boyfriend	-14347
▁hemorrhoid	-14348
▁coagulation	-14349
PP	-14350
cy	-14351
▁62	-14352
Gast	-14353
IDNE	-14354
type	-14355
▁SaO	-14356
▁bifur	-14357
▁cdiff	-14358
▁looks	-14359
▁rough	-14360
oumadin	-14361
▁Methyl	-14362
▁Repair	-14363
▁Erythema	-14364
▁pruritus	-14365
▁delirious	-14366
▁guidelines	-14367
▁encephalopathic	-14368
pull	-14369
-110*	-14370
▁103.	-14371
balance	-14372
▁epigast	-14373
▁Vomiting	-14374
▁surgeons	-14375
orzolamide	-14376
▁ophthalmic	-14377
lost	-14378
▁*14	-14379
▁LOW	-14380
-1.3*	-14381
▁Early	-14382
▁margins	-14383
▁branches	-14384
▁Gastritis	-14385
▁Legionella	-14386
ODY	-14387
-134	-14388
-2.4	-14389
▁hos	-14390
▁emph	-14391
▁repet	-14392
▁retinal	-14393
ptococcus	-14394
▁>100,000	-14395
▁echogenic	-14396
▁ureteroscopy	-14397
0.5	-14398
biop	-14399
ples	-14400
▁4.1	-14401
vular	-14402
▁lumen	-14403
onidine	-14404
▁REPORT	-14405
▁hormone	-14406
▁omental	-14407
▁regimens	-14408
▁Enalapril	-14409
▁blindness	-14410
▁diffusion	-14411
▁mentating	-14412
▁disorganized	-14413
▁exacerbating	-14414
▁consolidations	-14415
400	-14416
Ant	-14417
aphy	-14418
arch	-14419
IDNEY	-14420
treon	-14421
▁Able	-14422
ortical	-14423
▁asleep	-14424
▁border	-14425
reported	-14426
tingling	-14427
▁tonight	-14428
▁triglycerides	-14429
2).	-14430
AGE	-14431
▁Ert	-14432
▁PVI	-14433
-12.1	-14434
ocyte	-14435
ovitis	-14436
ruvada	-14437
▁Remic	-14438
▁integ	-14439
spectrum	-14440
▁consisted	-14441
ochondritis	-14442
▁SLP	-14443
▁SpO	-14444
ORDER	-14445
▁50,000	-14446
▁unwell	-14447
▁interferon	-14448
▁procedural	-14449
▁experiences	-14450
▁attributable	-14451
▁cardioverted	-14452
▁interactions	-14453
▁preoperatively	-14454
▁82	-14455
▁GG	-14456
lact	-14457
▁CPM	-14458
vastin	-14459
▁grown	-14460
rarenal	-14461
▁parotid	-14462
▁Ampicillin	-14463
▁leucovorin	-14464
▁cardiorenal	-14465
▁investigate	-14466
▁rehydration	-14467
▁carcinomatosis	-14468
▁transplantation	-14469
GA	-14470
ETA	-14471
-9.5	-14472
ACHS	-14473
▁OTC	-14474
-33.4	-14475
▁cent	-14476
▁inatt	-14477
syllium	-14478
Increase	-14479
▁stented	-14480
gesterone	-14481
iagnostic	-14482
▁Prilosec	-14483
prednisone	-14484
▁Oncologist	-14485
▁Sucralfate	-14486
▁reposition	-14487
▁hypocalcemia	-14488
ka	-14489
Post	-14490
▁AFI	-14491
-34.4	-14492
▁PTCH	-14493
▁heat	-14494
estyle	-14495
▁Color	-14496
▁afore	-14497
▁choice	-14498
▁urolog	-14499
▁Esophag	-14500
▁resource	-14501
▁chlamydia	-14502
taz	-14503
RAST	-14504
-34.1	-14505
philis	-14506
▁stret	-14507
Started	-14508
treonam	-14509
▁refuse	-14510
▁spikes	-14511
▁Changes	-14512
▁Follows	-14513
▁Baclofen	-14514
▁Fioricet	-14515
▁scrubbing	-14516
▁Instructed	-14517
▁perirectal	-14518
▁Musculoskeletal	-14519
omb	-14520
aril	-14521
▁Urg	-14522
▁2.5.	-14523
▁Tach	-14524
▁peac	-14525
oimmune	-14526
racheal	-14527
▁manual	-14528
▁compens	-14529
▁Symbicort	-14530
▁beneficial	-14531
▁Obstruction	-14532
▁immobilizer	-14533
▁nephrotoxic	-14534
▁neuroendocrine	-14535
MTX	-14536
food	-14537
▁4.0	-14538
▁VBG	-14539
asant	-14540
▁Requ	-14541
▁obst	-14542
bronch	-14543
▁Trops	-14544
▁Poorly	-14545
entional	-14546
▁devices	-14547
▁sparing	-14548
▁suscept	-14549
▁Increase	-14550
▁Neulasta	-14551
▁cephalic	-14552
▁unlabored	-14553
▁suctioning	-14554
▁neoadjuvant	-14555
ophy	-14556
▁108	-14557
▁>24	-14558
▁BiV	-14559
limid	-14560
lucan	-14561
▁>55%	-14562
▁Peak	-14563
atinet	-14564
uction	-14565
▁antrum	-14566
▁norvasc	-14567
▁Fumarate	-14568
▁approved	-14569
▁diverticulum	-14570
▁bioprosthetic	-14571
▁aforementioned	-14572
▁*3	-14573
▁Ve	-14574
ette	-14575
▁CEs	-14576
▁DTs	-14577
efore	-14578
legia	-14579
▁mins	-14580
▁behind	-14581
▁prefers	-14582
▁showering	-14583
▁contributor	-14584
▁presumptive	-14585
▁contraindicated	-14586
STA	-14587
▁WD	-14588
onded	-14589
▁0.05	-14590
▁1.3,	-14591
amines	-14592
▁Femoral	-14593
▁titrating	-14594
▁colonscopy	-14595
▁ANY	-14596
▁HUM	-14597
▁RIS	-14598
upron	-14599
folate	-14600
usually	-14601
▁Acetmn	-14602
▁Buprop	-14603
▁KIDNEY	-14604
▁Pulses	-14605
trending	-14606
▁fragments	-14607
▁Examination	-14608
▁hemorrhages	-14609
▁precipitating	-14610
DP	-14611
PHN	-14612
000.	-14613
illo	-14614
uvia	-14615
fibro	-14616
▁0.5%	-14617
▁cecal	-14618
▁neurom	-14619
▁Hospice	-14620
icarditis	-14621
▁arriving	-14622
▁Confusion	-14623
▁grandmother	-14624
▁Endocrinology	-14625
iel	-14626
▁CCB	-14627
-32.8	-14628
MNPHN	-14629
▁Orig	-14630
▁Xanax	-14631
▁asyst	-14632
Seizure	-14633
▁patella	-14634
▁putting	-14635
▁ACETMNPHN	-14636
▁Bacterial	-14637
▁irritability	-14638
BT	-14639
▁mit	-14640
-33.7	-14641
HBsAg	-14642
Hemat	-14643
undle	-14644
▁apart	-14645
▁entry	-14646
▁diphen	-14647
starting	-14648
▁airways	-14649
▁breaths	-14650
▁helping	-14651
da	-14652
ONIA	-14653
TING	-14654
▁RHC	-14655
asarca	-14656
ergent	-14657
pirone	-14658
tolerated	-14659
▁retrocardiac	-14660
▁possibilities	-14661
▁rheumatologic	-14662
-38	-14663
▁5.7	-14664
▁Prozac	-14665
▁uptake	-14666
▁someone	-14667
▁relevant	-14668
▁admitting	-14669
Disposition	-14670
▁Pericardial	-14671
▁Psychosocial	-14672
Hb	-14673
TG	-14674
▁But	-14675
▁GOC	-14676
▁clock	-14677
▁reconc	-14678
▁scanned	-14679
▁vasogenic	-14680
▁thrombocytosis	-14681
aut	-14682
aste	-14683
roll	-14684
lower	-14685
▁0.9.	-14686
▁Suic	-14687
▁qual	-14688
▁Their	-14689
▁Liquid	-14690
▁nerves	-14691
▁LEUKOCYT	-14692
▁suddenly	-14693
▁Nafcillin	-14694
▁Orientation	-14695
▁arrangements	-14696
oreg	-14697
▁Ref	-14698
▁CVVH	-14699
▁STRE	-14700
anuvia	-14701
▁stere	-14702
▁lactose	-14703
▁Ambulating	-14704
▁Incidentally	-14705
3/	-14706
such	-14707
vanc	-14708
▁say	-14709
lasma	-14710
▁dull	-14711
▁hung	-14712
▁CIRRH	-14713
▁Visual	-14714
▁floors	-14715
▁Allergy	-14716
▁Remeron	-14717
▁CIRRHOSIS	-14718
▁mediastinum	-14719
fish	-14720
▁job	-14721
phric	-14722
veloc	-14723
▁ease	-14724
-11.1*	-14725
strike	-14726
▁carry	-14727
operidol	-14728
▁Pradaxa	-14729
▁efforts	-14730
▁DISORDER	-14731
▁clotting	-14732
▁myositis	-14733
▁geriatrics	-14734
ohyd	-14735
▁bpm	-14736
ergan	-14737
impat	-14738
iring	-14739
▁mort	-14740
atonin	-14741
[...]
